/**
  ******************************************************************************
  * @file    peak_detection_model_data_params.c
  * @author  AST Embedded Analytics Research Platform
  * @date    2025-03-17T15:37:05+0700
  * @brief   AI Tool Automatic Code Generator for Embedded NN computing
  ******************************************************************************
  * Copyright (c) 2025 STMicroelectronics.
  * All rights reserved.
  *
  * This software is licensed under terms that can be found in the LICENSE file
  * in the root directory of this software component.
  * If no LICENSE file comes with this software, it is provided AS-IS.
  ******************************************************************************
  */

#include "peak_detection_model_data_params.h"


/**  Activations Section  ****************************************************/
ai_handle g_peak_detection_model_activations_table[1 + 2] = {
  AI_HANDLE_PTR(AI_MAGIC_MARKER),
  AI_HANDLE_PTR(NULL),
  AI_HANDLE_PTR(AI_MAGIC_MARKER),
};




/**  Weights Section  ********************************************************/
AI_ALIGNED(32)
const ai_u64 s_peak_detection_model_weights_array_u64[7993] = {
  0xc09e4a3ec09b9cc5U, 0xbfd624cb40b99863U, 0x3f07c42bc025e0a8U, 0xc11e2f81c0b010a2U,
  0x3e5b391c4164acc4U, 0xbeec2c0dc03d19b8U, 0xbc436e1cbe1ee316U, 0x3c3885d03e0821a7U,
  0x3e4495103e0a51d0U, 0x3eceb6513e628523U, 0xbc18669a3e8caab7U, 0x3cc42e0c3eac7521U,
  0xbeacf3213e936893U, 0xbf0bb5403eff0ae9U, 0xbe3379c3bc8727dcU, 0x3e79469c3f25cb0eU,
  0x3f38de7a3e3a3e6cU, 0xbe66ee6f3e6974a1U, 0x3ed0e1a03e20fcf5U, 0xbe152bc2be46009bU,
  0x3fa3c8bd3f0558abU, 0xbf766d41bded0c0dU, 0xbf8246f7bea42196U, 0xbf2e0eb13fab2665U,
  0xbf282f213fbc669dU, 0xbf4453dcbe9b62f6U, 0xbeb0dd153ef94fc6U, 0x3f2044bbbed33358U,
  0x3ecd588c3e44425aU, 0xbde1a2773e6126a8U, 0xbf0f3eeabd555d3eU, 0x3f3a32853ed35780U,
  0x3e513a56be0d5560U, 0xbe0032773e32bdfeU, 0x3eb87e6c3c75bfc4U, 0x3eca79c93e52c5d4U,
  0x3e727e52bd8ca3b4U, 0x3ebf9f3a3e67df90U, 0x3e98f4c1bf0e90ecU, 0x3f11b3a43e3291b3U,
  0xbec99f113ce11bc6U, 0x3ed074503f04fda7U, 0x3eb865ee3e83c09aU, 0x3cd522b23ec6946bU,
  0x3cbd2b883ea48e49U, 0xbdb662923ebbc30cU, 0x3ec75c793d44fb3bU, 0x3e21e412bf812028U,
  0xbf591daabeea38c5U, 0x3d89d59abf67d1acU, 0xbf0f5d77bef6f304U, 0xbe92dae33e25864dU,
  0xbe943fdd3d5b3b34U, 0xbe57045cbe96ddd6U, 0x3ea2f443be231bf7U, 0x3e80e9c23e4cb073U,
  0xbf2bb72fbeb8befdU, 0x3e0b0782be3c4005U, 0x3f6a2c5b3f047318U, 0xbcd26159bf7de1f3U,
  0x3f725d533d76785cU, 0xbfb34417bf8cf4e6U, 0x3e0ae9aa3e35c0c7U, 0xbee2e2043ecbdd8cU,
  0x3d9d5404beb05897U, 0xbf14030cbf1cadc7U, 0xbeaf08c33c257f4cU, 0xbe8e239b3e8e597dU,
  0xbf41e391bf3e1151U, 0x3ebfd0a9bf122b8bU, 0x3f5629edbf46a346U, 0xbe01d054bf21f345U,
  0x3e770c473f1ef438U, 0x3f4b00463f21a463U, 0x3e25a66f3e936223U, 0x3de067c33d80fd1dU,
  0x3edb722a3e9e5947U, 0x3f0a3a5a3ef29adaU, 0xbf033330be67c6aeU, 0x3d5200c1bdb11c43U,
  0x3e037ebc3e38084fU, 0xbdc3e94c3f0fb0b9U, 0x3e8224a53ddd2677U, 0x3ee708debe2c8e72U,
  0x3ee2151bbeb0d772U, 0x3eef74ecbe7bded6U, 0xbed4e43c3ee5397eU, 0x3ea080983ef098a4U,
  0x3ede12cbbf0f0a02U, 0xbce6fc073ef83f22U, 0xbee9a206bf039674U, 0xbf16511d3ed3489eU,
  0x3fb02c1fbfcb9da7U, 0x3fb280fc3f5a78e9U, 0xbe1d6fbe3f7dc019U, 0xbfadc7d43f4fc51dU,
  0xbecfcd4e3f2d1351U, 0xbfe31df1bf9b3172U, 0x3ed5ce1a3cd7234aU, 0x3edce2b2bd9be8ffU,
  0x3e1f98c03eb7eecfU, 0x3e4e39edbed77113U, 0x3e536c31be0de978U, 0xbe9ce1c03ef89b6aU,
  0xbe6747383f080d00U, 0x3f181b7b3b86c8e5U, 0x3de7087d3e0f2a2cU, 0xbf56ea9dbe91497aU,
  0x3f3c24bfbf7ad807U, 0xbf2ecaffbf8c7051U, 0xbe57439d3e9da11eU, 0x3e3770513e806bceU,
  0x3d8e36be3eb4d6ddU, 0x3e1356c4bde391e9U, 0x3e891aa23e7bc8c9U, 0xbdb682bf3e2bef4bU,
  0xbc287d54bf8f0f70U, 0xbef48fddbf8ae3e8U, 0x3e8d4c9f3e8044caU, 0x3f778f28be9607fbU,
  0xbf7e5627be9fb940U, 0x3fa876ab3f1a9c9bU, 0xbcb1ab2bbe50fa0cU, 0xbda2a2be3f80f0f5U,
  0x3f04ae7d3eb2a57fU, 0x3f2766333f4bcee6U, 0x3d376ad8bf1fe1ceU, 0xbf03dca8bd18e66fU,
  0xbe6a1e13bf06eb12U, 0x3dab5de2bea8e644U, 0xbfaa925a3eb34fb7U, 0x3f70d185bffdc618U,
  0x3f4d9f543edb6906U, 0xbf26bcd33f99cd93U, 0xbec3f33ebeb9e2c5U, 0xbfcb37c9bfa79308U,
  0x3fac0078bd5ae693U, 0x3ec61975bbdf533eU, 0x3ef4f4783ecc9fbeU, 0x3d9cd5a83f278c50U,
  0x3e97583f3f8dbd59U, 0x3f7c025fbe08b0c4U, 0x3e8757a1be223aebU, 0xbf197845bfcd7ed7U,
  0xbfe1e6eb3f32b9ecU, 0xbf6c561fbf8bee1eU, 0x3f47add0bf1b3f48U, 0x3f2089013e844345U,
  0x3ef575dd3f521e7eU, 0xbf266213becd0c56U, 0xbe2c5938bee99e8cU, 0x3f14abde3ea002a6U,
  0x3f41d3393e711c1eU, 0xbe88b450bd2cdcbfU, 0xbf2328493f45cdf3U, 0xbf25d81d3f306166U,
  0xbf08ac67bf179024U, 0xbd8e67243f2eafc4U, 0xbf1250b83cdc10f9U, 0x3fcccd9b3fb866f2U,
  0x3f4148c6bf1bacaaU, 0x3efc57a53f942c81U, 0x3de91cc83e9c0aa2U, 0xbf99c382bff4202eU,
  0x3ee6e7af3e018523U, 0xbe97bf87bf78d1aeU, 0x3db80954bf04b6e4U, 0x3ef779d53eeffcc5U,
  0x3f5c085b3f3e37c9U, 0xbefde1ecbf261c01U, 0x3eda4d46bccc16a8U, 0xbb9447fcbc3d7ebbU,
  0xbe8bce6f3ecc03deU, 0x3ef07f9e3e1b808cU, 0x3eb117f33e0ca185U, 0x3e3d3bebbeefa497U,
  0x3fdf4effbfa90483U, 0xbf5b19a73fabae25U, 0xbe9a014b3e264d6aU, 0xbf928e68bfeca10bU,
  0xbfe852713fd193b2U, 0x3e956c5f3fe0370cU, 0xc0202ad5beca723fU, 0x404ae3e8bf75b544U,
  0x3f80315bc0514037U, 0xbf6a7ae83fd20da7U, 0x4058398e3fba6f4cU, 0xc00d913fbdae5524U,
  0x3d5d2f623d14cae5U, 0x3e94ea493e557315U, 0x3ed110ea3def5518U, 0x3e8e74e93d8d75cfU,
  0x3e3f0d443df08b5dU, 0xbe6ec49b3e0b6fd1U, 0xbf9ae3b6bf04070fU, 0xbfa32761bf03bedfU,
  0x3f35bd763e1d58f5U, 0x3fee45f63fafe964U, 0xbf67cde7bf66a38cU, 0xbdbc986c3fbcea5cU,
  0xbec6f0c8be8a882eU, 0xbe8eec213d56f8caU, 0xbed52d6cbecbb206U, 0x3e2ad1453ec6d586U,
  0x3ea961c83eea3907U, 0xbe9b1170bd87a04aU, 0xbdd34fbabeadc5faU, 0xbe96a1903c81f4efU,
  0xbe8c37473ecd5f93U, 0xbefbd4013e0177a0U, 0x3db43a6f3e939d2aU, 0xbea8b9263f2225c3U,
  0xbea7c723bd452505U, 0xbe957387bd0d4dfbU, 0xbe80aa4e3ce999ecU, 0xbe169c25bebdc861U,
  0x3b2a1b8d3de1ec97U, 0xbc2a1b8d3e178089U, 0xbd8f873fbd2a1b8dU, 0x3d54a270be20ce0bU,
  0x3c14d81b3d2a1b8dU, 0xbda7731fbc14d81bU, 0xbd1a28f73dd1fa02U, 0xbdcca9253c54a270U,
  0x3d84e5863d5f4429U, 0xbd44afdbbc8a3663U, 0x3c14d81bbd2f6c69U, 0xbddf4429bd24cab1U,
  0xbd94d81b3d04e586U, 0x3de73d743e0f873fU, 0xbe078df5bc8a3663U, 0x3cf4879c3e04e586U,
  0x3d2f6c69be0e3308U, 0xbbff29543db4bd46U, 0x3cff2954be0b8a9aU, 0xbdbf5eff3d8a3663U,
  0x3de1ec973c8a3663U, 0xbd0f873f3cff2954U, 0x3dbf5effbe08e22cU, 0x3c94d81b3def36beU,
  0x3dd4a2703de1ec97U, 0x3e1cd166bb2a1b8dU, 0xbe078df53dbf5effU, 0x3d84e586bdc4afdbU,
  0x3cf4879c3e1b7d2fU, 0xbd978089bdca00b8U, 0xbddf44293dba0e23U, 0x3aaa1b8dbe0e3308U,
  0x3baa1b8d3dd9f34cU, 0xbdc2076dbdbf5effU, 0x3d2f6c693e04e586U, 0xbdbf5eff3dbf5effU,
  0x3cca00b83d9a28f7U, 0xbdb4bd46bd2f6c69U, 0x3dacc3fbbda7731fU, 0x3def36be3caa1b8dU,
  0xbdb214d83dd74adeU, 0xbdf1df2cbe1cd166U, 0xbdc2076dbda22242U, 0x3e0a3663bc2a1b8dU,
  0x3d69e5e2be1383e4U, 0xbdba0e233cd4a270U, 0x3dc7584a3e28c756U, 0xbd823d18bda7731fU,
  0xbd4266f43db71985U, 0xbbfd2cc6bd547c6fU, 0xbdcff710bcf42208U, 0x3dcff710bd620c8dU,
  0xbdf664b8bd15313eU, 0xbbd901ce3df664b8U, 0xbdf664b8bd6691ecU, 0x3cd901cebcf42208U,
  0x3c6b174b3d305177U, 0xbd80d913bb5901ceU, 0x3ddd872d3bd901ceU, 0xbd87a121bd4b71b1U,
  0xbdd901cebcc6ec52U, 0xbbd901cebd10abdfU, 0x3ceb174bbc5901ceU, 0xbc46ec523c7d2cc6U,
  0xbbb4d6d73dd6bf1fU, 0xbdf664b8bd395c36U, 0x3d8e692f3d2746baU, 0xbcf42208bbb4d6d7U,
  0x3d80d9133dc6ec52U, 0x3da5040abcc6ec52U, 0xbd19b69d3d831bc2U, 0xbd78a7673c99b69dU,
  0x3d87a121bd1e3bfcU, 0xbd855e72bdb29428U, 0x3d78a7673dc92f02U, 0x3deb174b3d742208U,
  0xbc87a1213d4266f4U, 0x3d0c26803b10abdfU, 0xbd78a767bde8d49bU, 0x3d831bc23dbb9ee5U,
  0xbd4ff710bd2746baU, 0xbc87a1213da5040aU, 0x3d95313e3dc266f4U, 0xbc99b69dbdd47c6fU,
  0xbdbb9ee5bd5d872dU, 0x3ceb174bbd46ec52U, 0xbd15313ebd547c6fU, 0xbddd872dbd620c8dU,
  0x3dabcc18be0f8a87U, 0xbd6b174b3d10abdfU, 0xba90abdfbd9773eeU, 0x3df664b8bde44f3bU,
  0xbd3051773ccff710U, 0xbd8c26803c99b69dU, 0xbc90abdf3d395c36U, 0xbd547c6f3d9773eeU,
  0x3d9d325dbe1018d5U, 0x3e23bf21bd1018d5U, 0xbe1b8f2cbdce521aU, 0xbd82ff4d3e23bf21U,
  0xbd2a4be43e4ff54bU, 0x3de1f865bd6bcb8bU, 0xbe07e8e0be3aabceU, 0xbda705833c9d325dU,
  0x3d02ff4d3e1018d5U, 0xbdc138923e2078beU, 0xbe11bc063e1d325dU, 0x3de8852a3e2f3578U,
  0xbe341f0bbdad9246U, 0x3e1ed58d3d5eb203U, 0xbdb0d8a8be270583U, 0xbd1018d53e3df230U,
  0x3de53ec7bd9018d5U, 0x3d78e5133de53ec7U, 0xbe015c1d3dc7c555U, 0xbb9d325d3caa4be4U,
  0x3ddb6ba23d30d8a8U, 0x3dc47ef43d1d325dU, 0xbdad92463e2a4be4U, 0xbd78e513bd7f71d7U,
  0xbdd8253fbdfc2b74U, 0xbe30d8a83d02ff4dU, 0x3de53ec7bc6bcb8bU, 0xbcc47ef43d7f71d7U,
  0x3e23bf213d653ec7U, 0x3e4138923db0d8a8U, 0xbcdeb203bc51987cU, 0x3db0d8a8bdad9246U,
  0xbd3df230bda078beU, 0x3d82ff4d3d098c11U, 0xbe2562513da078beU, 0x3df8e513be07e8e0U,
  0x3da70583be135f36U, 0x3e135f363da078beU, 0xbda078bebd898c11U, 0xbe0cd274be341f0bU,
  0xbc02ff4dbd447ef4U, 0x3e30d8a83e0b2f42U, 0x3d58253f3e0645afU, 0xbd58253f3e1848c9U,
  0x3e30d8a83dbaabceU, 0xbdf8e513be0b2f42U, 0x3dc13892bdcb0bb8U, 0xbda3bf213e256251U,
  0x3c0d99edbd6033b7U, 0xbe575a183dce807aU, 0xbcd466e33cec008bU, 0xbdb6e6d2bdf1e6f5U,
  0xbe108d22bbbccd3cU, 0xbcd466e3bea6ad2fU, 0xbe1f4d2bbdf7cd5fU, 0xbdda4d4d3d81cd1aU,
  0x3e01cd1a3e908d22U, 0x3e2240603dce807aU, 0xbeae0d33be94f9f1U, 0x3ca53395be80537fU,
  0xbe84c04ebe5a4d4dU, 0x3e8d99edbdec008bU, 0x3e908d22be33f39dU, 0x3dfdb3c9be138057U,
  0x3c3ccd3cbdd466e3U, 0xbe138057be690d56U, 0xbe94f9f13d9f4d2bU, 0x3e4b8d453e6326ecU,
  0xbdec008b3d87b383U, 0x3cbccd3c3e0aa6b8U, 0xbdc89a10bdc2b3a6U, 0x3e6326ec3e908d22U,
  0xbe908d22bd8d99edU, 0x3c3ccd3c3e5d4082U, 0xbe9966c1bd0d99edU, 0x3e3ccd3c3e0d99edU,
  0x3d3100683e84c04eU, 0x3e661a21be6326ecU, 0xbe9dd390be4e807aU, 0xbe1f4d2bbe0d99edU,
  0x3ea0c6c53e07b383U, 0x3dd466e33e0aa6b8U, 0x3e33f39dbe108d22U, 0x3e6033b73e8aa6b8U,
  0x3e1380573d938057U, 0x3e07b383bdda4d4dU, 0x3d310068be87b383U, 0x3bbccd3cbea0c6c5U,
  0xbe1966c13e8639e8U, 0x3e1f4d2b3dab19feU, 0x3e9f4d2bbdd466e3U, 0xbe6033b7be3ccd3cU,
  0x3c0d99edbebb53a2U, 0x3d8d99edbcec008bU, 0xbc0d99ed3d8d99edU, 0xbdf1e6f53ea6ad2fU,
  0x3d9c1248bc81b8c0U, 0x3dc6a2e73ca226f1U, 0x3d5ae7c5bd2226f1U, 0xbdbe875bbdc49c04U,
  0xbdef2ca23cdae7c5U, 0x3c52cc383dccb790U, 0xbc9a0b653c11efd9U, 0x3da226f1bd56d9ffU,
  0x3da42dd43dcab0adU, 0xbc63035100000000U, 0xbd91efd9bc52cc38U, 0xbdac495fbdef2ca2U,
  0xbd56d9ffbdb872b1U, 0xbd325e08bd95fd9eU, 0xbd8fe8f53ba226f1U, 0x3dd2cc38bca226f1U,
  0xbc2226f13d8bdb30U, 0x3d325e08bda634b6U, 0x3da42dd4bcd2cc38U, 0xbde50a33bc01b8c0U,
  0x3d83bfa4be00b54fU, 0x3d11efd93c9a0b65U, 0xbc11efd9bc89d44cU, 0xbc733a693cfb55f5U,
  0x3dc295203d89d44cU, 0xbd01b8c03db872b1U, 0x3d733a693d93f6bcU, 0xbdd0c556bd2226f1U,
  0xbdd8e0e1bc91efd9U, 0x3da0200e3d980481U, 0xbcd2cc38bdba7995U, 0x3d6711173bc29520U,
  0x3d05c6863c325e08U, 0x3dc8a9c9bd366bcfU, 0x3d1e192abdb05726U, 0x3c11efd9bd83bfa4U,
  0x3ba226f1bdb66bcfU, 0xbc89d44c3d980481U, 0x3a81b8c03ded25c0U, 0x3d11efd9bddef58aU,
  0x3dd6d9ffbdd8e0e1U, 0x3d83bfa4bdbe875bU, 0x3dccb7903da634b6U, 0x3d8bdb30bdd2cc38U,
  0x3d8de2123d7f63bbU, 0xbc81b8c0bccab0adU, 0x3dd4d31c3d11efd9U, 0xbd09d44cbdb66bcfU,
  0x3ddbacb5bd9c84a7U, 0x3e03ce06be2e5de3U, 0x3dacfe683dc5b509U, 0x3d24c1873d2fbd5dU,
  0x3cdbacb5bd810f10U, 0xbdb27c53bbafbd5dU, 0x3d6c26753de9677fU, 0x3de9677f3ce6a88aU,
  0x3bdbacb53dd62ecaU, 0x3d353b48bd19c5b2U, 0xbdeee56abcdbacb5U, 0x3cc5b5093cd0b0e0U,
  0x3bdbacb5bdf1a461U, 0xbdd0b0e03d1447c6U, 0xbc71a461bd868cfbU, 0xbd5bacb5bda20292U,
  0xbc45b509bd99c5b2U, 0x3e068cfbbd7ca036U, 0xbda4c1873d71a461U, 0x3c45b5093c83ce06U,
  0x3d562ecabc8ec9dcU, 0x3d71a461bc8ec9dcU, 0xbcf1a4613df1a461U, 0x3d562eca3d40371eU,
  0xbd9188d1bc45b509U, 0xbd094bf13dc0371eU, 0x3dcb32f33dbd7829U, 0xbdd62ecabe12e84cU,
  0xbd9c84a7bdf7224cU, 0xbc19c5b2bd9c84a7U, 0x3d83ce06bd562ecaU, 0xbd4b32f33d99c5b2U,
  0xbdde6baabb2fbd5dU, 0x3d71a4613da4c187U, 0x3dfca0363e102957U, 0x3dcb32f3bbdbacb5U,
  0xbdc873fe3d24c187U, 0x3d868cfbbaafbd5dU, 0xbe19c5b23b2fbd5dU, 0x3dc2f6133ce6a88aU,
  0x3dd62ecabc8ec9dcU, 0xbd2fbd5dbd19c5b2U, 0x3aafbd5dbcd0b0e0U, 0x3d9188d1bb2fbd5dU,
  0xbde9677f3dbab933U, 0xbd2fbd5dbd353b48U, 0x3d8c0ae73d2fbd5dU, 0xbe0ec9dcbd562ecaU,
  0x3d42e3ed3d9efd4fU, 0x3e017fdfbdcfb64aU, 0x3ca41e413da93f33U, 0xbc241e41be22d604U,
  0xbcb8a209bd922af2U, 0x3bf62d60bc0f9a78U, 0xbe0e523cbd66ca8bU, 0x3c8f9a78be055894U,
  0x3bcd25d13d38a209U, 0xbd055894bd855894U, 0x3dae6025bdcfb64aU, 0xbe017fdfbd8037a2U,
  0x3d2e6025bd42e3edU, 0x3c4d25d1bc762d60U, 0xbd1efd4f3d0037a2U, 0x3c4d25d1bc0f9a78U,
  0xbe1603a73d66ca8bU, 0x3bf62d603df10c6fU, 0x3db611903d8d0a00U, 0x3dc2e3edbe20458bU,
  0x3cb8a209be09314aU, 0xbde43a12bc38a209U, 0x3c8558943d0f9a78U, 0x3d9efd4f3da6aeb9U,
  0x3bf62d60bdb61190U, 0xbdc05374bdfb4e53U, 0x3dc053743d5c88a7U, 0x3d66ca8bbbf62d60U,
  0x3d8d0a003c241e41U, 0xbde95b043da41e41U, 0x3d9efd4fbd293f33U, 0xbd61a99abe0d0a00U,
  0xbd7b4e533dd9f82eU, 0xbde1a99a3dcd25d1U, 0x3dd4d73b3d3dc2fbU, 0x3e017fdfbdabcfabU,
  0x3c8f9a78be1b2499U, 0x3d710c6f3d9c6cd6U, 0x3d9c6cd6bd9c6cd6U, 0xbcebeb7ebc38a209U,
  0xbc4d25d1bdc05374U, 0xbc99dc5d3d0037a2U, 0xbc99dc5dbe0d0a00U, 0xbaa41e413debeb7eU,
  0x3d8a79863dc57466U, 0x3d4d25d1bba41e41U, 0x3da6aeb900000000U, 0x3d66ca8b3dc804deU,
  0x3e330de43d5e4634U, 0x3de681b23d142eceU, 0x3d942ecebe1a5b6cU, 0xbe1a5b6cbb83b7d3U,
  0x3d560ab8be372ba2U, 0xbbc593bdbdd1ecf9U, 0xbdde46343b03b7d3U, 0xbe5e46343de681b2U,
  0xbe1a5b6c3e10110fU, 0xbdfb166b3b83b7d3U, 0x3c03b7d3be142eceU, 0xbcb51cc200000000U,
  0xbd76f8ac3e5e4634U, 0xbe5e46343e1a5b6cU, 0x3dea9f703d24a5c8U, 0x3dea9f7000000000U,
  0xbd6681b23d76f8acU, 0x3d142ece3d6681b2U, 0xbdd60ab83d90110fU, 0xbe605514be03b7d3U,
  0xbda4a5c8be82b063U, 0xbc03b7d3bde681b2U, 0x3dde46343e393a81U, 0x3d560ab83e49b17bU,
  0x3d6ebd2f3d142eceU, 0xbe01a8f4bd6681b2U, 0x3e2ef024bdea9f70U, 0xbd3d583fbd83b7d3U,
  0xbe2ad266U, 0xbdcdcf3bbd1c6a4bU, 0xbca4a5c83d4593bdU, 0xbd6ebd2f3d6ebd2fU,
  0x3cb51cc200000000U, 0x3e689092bc942eceU, 0xbd4593bd3da4a5c8U, 0x3deebd2fbdde4634U,
  0x3e6a9f70bdb51cc2U, 0xbe1a5b6cbc24a5c8U, 0x3e2ef024bdff3429U, 0xbe3f671fbbc593bdU,
  0x3e2ce146be184c8dU, 0xbe30ff04bdb51cc2U, 0xbd142ecebd4dcf3bU, 0xbbc593bd3e4fde19U,
  0x3e4fde19bcd60ab8U, 0x3e6681b2be581996U, 0xbdff34293e351cc2U, 0xbe2ad2663e70cc0eU,
  0x3dd5a2433d841087U, 0xbdf89795bd5984a2U, 0xbe633a8e3e2705d7U, 0x3e44279b3e232379U,
  0xbdaae8373e5f582fU, 0xbd841087bdc9fb29U, 0xbe07f2e5bdb68f51U, 0x3e30bbc3be11a8d1U,
  0xbe61495fbe3c62dfU, 0x3e0bd543bcaae837U, 0xbe388081be3c62dfU, 0xbe76a665bcf89795U,
  0xbe51bfe5bdba71afU, 0xbe2323793d5984a2U, 0xbe6cf079be21324aU, 0xbd61495f3e0dc673U,
  0x3d9f411b3d232379U, 0xbe72c4073e021f58U, 0xbcd984a2bc3a71afU, 0xbdb2acf3bcc9fb29U,
  0xbdba71afbc5984a2U, 0x3e55a243bd939a00U, 0xbda705d7be74b536U, 0x3d2ae8373e09e414U,
  0x3e2323793e196d8eU, 0x3d9f411b3dba71afU, 0x3e09e4143da32379U, 0xbcaae8373e196d8eU,
  0x3d802e28be652bbdU, 0x3d977c5e3dfc79f3U, 0x3e1b5ebd3d87f2e5U, 0x3d0410873d8fb7a2U,
  0x3db68f51be1f411bU, 0x3d232379bcba71afU, 0x3e4bec583de90e1bU, 0xbe32acf33c789795U,
  0xbe6ee1a9bd0bd543U, 0xbe3880813de1495fU, 0x3c7897953d9b5ebdU, 0xbe041087be44279bU,
  0xbb7897953e2ae837U, 0xbd9b5ebd3caae837U, 0x3e158b2f3e21324aU, 0x3bba71afbdf0d2d8U,
  0xbda323793e51bfe5U, 0xbe32acf33e388081U, 0x3d139a00bd1b5ebdU, 0xbce90e1bbd139a00U,
  0xbdeebe83bcbefed0U, 0xbe642222be795ae5U, 0xbe3efed0bea87281U, 0x3daf143ebdeebe83U,
  0x3e84a2bb3ca9c60eU, 0x3e29c60ebe04a2bbU, 0x3e11e633be2f143eU, 0x3da9c60ebe09f0ebU,
  0xbe271ef5be3c57b7U, 0x3e9092a7bde97053U, 0x3e95e0d83e2c6d26U, 0xbdf95ae5be6ebe83U,
  0x3e740cb43ea477ddU, 0xbe85f6473e09f0ebU, 0x3e6ebe83U, 0xbe01fba2bda9c60eU,
  0x3deebe833d29c60eU, 0xbdeebe83be499b30U, 0x3e01fba23d8f3f1cU, 0x3e3709873daf143eU,
  0xbe19db7cbe3c57b7U, 0x3d89f0ebbdcee961U, 0x3d3efed03dc44cffU, 0xbe1f29adbe1f29adU,
  0x3e444cff3e11e633U, 0xbe9092a73d740cb4U, 0x3e31bb573de42222U, 0xbda9c60ebe3efed0U,
  0x3daf143ebde97053U, 0xbd1f29ad3e66c93aU, 0xbe5985c2bdf95ae5U, 0x3e11e633bcd43791U,
  0x3e8f3f1c3e444cffU, 0x3e31bb57be642222U, 0xbdb9b09f3e444cffU, 0x3d34626ebdd43791U,
  0xbdcee961be697053U, 0xbe21d0c53e889d5fU, 0xbe34626ebd84a2bbU, 0xbe04a2bb3e4c4248U,
  0xbe84a2bb3d99db7cU, 0x3d09f0eb3e09f0ebU, 0x3e9c8295be444cffU, 0xbe0c98043dd43791U,
  0x3e499b30bdd985c2U, 0x3e11e633be34626eU, 0xbe0749d3be4ee961U, 0xbe1734643dcee961U,
  0x3ede7766bdf5c5bcU, 0xbe2dbc55bea97f8aU, 0x3ea3245cbeab9df0U, 0x3d188c633e47290fU,
  0xbddc5901bdc2ec46U, 0xbe89b7a03ed81c38U, 0x3ea97f8abca97f8aU, 0x3eed4c283d188c63U,
  0x3ecfa2a33eafdab9U, 0x3d7e3f503e1cc92dU, 0x3df5c5bcbeba72b2U, 0x3e64d2953e9aaac8U,
  0x3e8df46b3eb41783U, 0x3de4d2953e690f5fU, 0xbe144f99bf068a09U, 0xbdfe3f50be0bd606U,
  0xbe2542c1be6095caU, 0xbee2b430be0bd606U, 0x3c87993c3ec94775U, 0xbe188c63bced4c28U,
  0x3e9aaac83d9012cfU, 0x3ecb65da3e8df46bU, 0x3e87993c3e3a72b2U, 0xbe690f5fbccb65daU,
  0x3e4fa2a33ee6f0f9U, 0xbec7290fbed5fdd2U, 0xbd9012cfbded4c28U, 0xbd4b65da3df5c5bcU,
  0x3eadbc55be813e0dU, 0xbebc9117bdba72b2U, 0x3e1cc92dbea105f7U, 0x3da105f7bedc5901U,
  0x3d6d4c283e2dbc55U, 0xbd07993cbd297f8aU, 0x3eb8544dbd188c63U, 0xbb87993cbd988c63U,
  0x3eed4c283ea97f8aU, 0xbf024d403ca97f8aU, 0xbeb1f91f3e988c63U, 0x3e5c5901bded4c28U,
  0x3e9ee792be7e3f50U, 0x3eb1f91f3e9cc92dU, 0xbe8df46bbe87993cU, 0xbe8bd6063ea542c1U,
  0xbed1c109be9aaac8U, 0xbd07993cbe9ee792U, 0xbe8bd606be0bd606U, 0x3e42ec46be9ee792U,
  0xbe2abf133e2abf13U, 0xbd9b88073dafd16cU, 0xbd4addf3be182676U, 0x3dd86436bdb6948eU,
  0xbe56b36ebccaddf3U, 0xbd5f27583d7370bdU, 0x3e0fb28c3e3332fdU, 0x3d1b88073dd502a5U,
  0x3dc41ad13e022c49U, 0x3d007b80bd8aa033U, 0x3e073ea2be5351ddU, 0xbe058dd93dc77c62U,
  0xbd65ea79bdb332fdU, 0x3dbd57b0bd1b8807U, 0x3e45cb9a3c3d57b0U, 0xbdc77c623decad9cU,
  0x3e23fbf1U, 0xbd5f2758bcf370bdU, 0xbda90e4a3c3d57b0U, 0xbca24b29be14c4e6U,
  0x3e275d823c224b29U, 0x3d94c4e6bb586436U, 0x3db9f61ebe36948eU, 0x3d224b293e318234U,
  0xbd8aa033bc3d57b0U, 0xbe073ea2be4c8ebbU, 0xbe022c49be40b941U, 0x3decad9cbccaddf3U,
  0x3de94c0abd14c4e6U, 0xbdf370bd3e3332fdU, 0xbdb6948ebd94c4e6U, 0x3d3d57b0bdce3f84U,
  0xbd873ea23e25acbaU, 0xbda5acba3ddbc5c8U, 0x3c3d57b0bbd86436U, 0xbd8e01c33c586436U,
  0x3ad86436be23fbf1U, 0xbd36948ebe3f0878U, 0xbc224b293d586436U, 0xbad864363df6d24eU,
  0xbe13141d3de94c0aU, 0xbe13141d3d36948eU, 0xbccaddf33dfa33dfU, 0x3e1d38d0bd807b80U,
  0xbc7370bd3d807b80U, 0xbd65ea793d007b80U, 0xbdb6948e3d36948eU, 0x3d7370bdbde288e9U,
  0xbdfe553abe1cd6b0U, 0x3e07a4ebbcba82c4U, 0x3e5e8a92bc07a4ebU, 0x3d945c613cdc6bffU,
  0xbe255100be719dc3U, 0xbdc2fd133e014930U, 0x3e189989bccb7761U, 0x3e473a393dd82ed7U,
  0xbdba82c43c6d609cU, 0xbd3a82c43b07a4ebU, 0x3cdc6bff3c989989U, 0xbdd82ed73e342709U,
  0xbe09c37fbc07a4ebU, 0xbe0586583e058658U, 0x3ccb77613bcb7761U, 0x3dc2fd13be298e26U,
  0xbd07a4ebbddc6bffU, 0xbcfe553abd7e553aU, 0xbe451ba63e058658U, 0xbe0149303e62c7baU,
  0xbdba82c43d7e553aU, 0xbe3a82c43c298e26U, 0x3de4e64dbd101f3aU, 0xbdf19dc33e298e26U,
  0x3e42fd13bdcb7761U, 0xbda113d7bdcb7761U, 0xbe8695a2bd8367c4U, 0x3dd3f1b03e4958ceU,
  0x3e342709bde92374U, 0xbdfe553a3d7e553aU, 0x3dcb7761be4958ceU, 0x3c6d609c3e298e26U,
  0x3dd3f1b0bced609cU, 0x3db6459c3de4e64dU, 0x3d3a82c4be4958ceU, 0xbdcb77613dd82ed7U,
  0xbb87a4ebbc6d609cU, 0xbe7e553a3d945c61U, 0x3e42fd13bc4b7761U, 0x3ccb77613de0a926U,
  0xbdd3f1b03dfa1812U, 0x3e3208753e5c6bffU, 0x3e40de7f3ced609cU, 0xbc6d609cbe2dcb4dU,
  0xbe276f933e255100U, 0x3d53f1b0be6d609cU, 0x3e09c37f3d8367c4U, 0xbe09c37fbe3a82c4U,
  0x3d9ba6593d6ff5caU, 0xbd490c333e26ffd0U, 0x3ddc80ffbd88318eU, 0xbd6ff5ca3d5604bbU,
  0xbe0eadd2bc01b54bU, 0x3c697986bdd604bbU, 0x3db8d58abd3c13acU, 0xbd1ba6593d62fd43U,
  0x3de2fd43be09d09fU, 0x3dbf51cd3c9ba659U, 0x3d08318e3e06927dU, 0x3da560bf3dbf51cdU,
  0x3d952a15be03545bU, 0xbe03545b3bcf8877U, 0xbdc5ce11bcb59768U, 0x3d62fd433e00163aU,
  0x3d428fefbd2f1b25U, 0xbc3597683dd2c699U, 0x3dd2c699bd5c80ffU, 0xbda89ee13c9ba659U,
  0xbde97986be20838cU, 0x3e1ba659bb9ba659U, 0x3e26ffd0be1d456aU, 0x3e152a15be00163aU,
  0x3da560bf3c81b54bU, 0x3d22229dbe22229dU, 0x3dc90c333decb7a8U, 0x3d81b54b3de2fd43U,
  0xbcf6720e3da89ee1U, 0xbd01b54b3c8eadd2U, 0xbe04f36cbc01b54bU, 0xbc4f8877be0eadd2U,
  0xbd7cee52bde97986U, 0x3d2f1b25bdaf1b25U, 0x3d986837bd3c13acU, 0xbd6ff5cabdb25947U,
  0xbc01b54bbccf8877U, 0xbe11ebf43d152a15U, 0x3e4de966bc4f8877U, 0xbe138b043e01b54bU,
  0xbdd2c699bccf8877U, 0x3bcf8877bd986837U, 0x3df6720e3b4f8877U, 0xbdd942dd3d88318eU,
  0x3d8b6fb03e442f00U, 0xbdabdd033d359768U, 0xbdabdd033cb59768U, 0xbdb259473d6ff5caU,
  0x3ec645ef3e13dd60U, 0xbdd71374be4cfe8bU, 0xbea807333cbc3106U, 0xbe89c876be78ae7eU,
  0x3e6e99953e571374U, 0x3dd05ad9be030fdbU, 0xbdd05ad93ec13b7aU, 0x3e9081123ec13b7aU,
  0xbe2b6380be1df24aU, 0xbeb3ca43be881a4fU, 0x3ea807333ec7f417U, 0xbe321c1d3ed5654eU,
  0x3ed05ad9bbd71374U, 0x3e5dcc10bea4aae5U, 0xbe9c4422beb21c1dU, 0x3e6484acbe38d4b8U,
  0xbdf8ae7ebe0d24c5U, 0x3e2807333e066c29U, 0xbe2ebfce3d49a23dU, 0xbeb5786b3b571374U,
  0xbd3c3106beba82dfU, 0xbdff671b3e24aae5U, 0x3ec9a23dbd13dd60U, 0xbe3c31063c214e97U,
  0x3ea9b55abe908112U, 0x3e2b63803d7f671bU, 0xbec2e9a2bdaebfceU, 0xbec13b7abd6484acU,
  0xbe881a4fbe13dd60U, 0x3e0d24c53eaebfceU, 0xbe38d4b8bda14e97U, 0x3d3c3106be7f671bU,
  0x3d13dd60bcd71374U, 0xbdddcc103cd71374U, 0xbe2807333e8ed2ebU, 0x3e71f5e33e5dcc10U,
  0xbec13b7a3e881a4fU, 0xbe9c4422bd6484acU, 0x3e030fdbbe755231U, 0x3e89c8763e71f5e3U,
  0x3e67e0fa3e830fdbU, 0xbea9b55a3ebf8d54U, 0xbeb21c1dbe89c876U, 0xbd8d24c53ecb5064U,
  0xbe214e97bebc3106U, 0x3ebf8d543e38d4b8U, 0x3e830fdbbdd05ad9U, 0xbe93dd603e922f39U,
  0x3e0c715d3d63f715U, 0xbe55b7a43e3938c1U, 0x3c928c8ebe3526a1U, 0xbe02440c3df02d76U,
  0x3e28f040be4f9c73U, 0x3e3d4ae13e372fb1U, 0x3d4b8a533e7e6ce8U, 0x3d53ae93bd5bd2d5U,
  0x3e6c1b56be128c8eU, 0x3c63f7153e4d9363U, 0x3b02440cbe169eaeU, 0x3e128c8e3d9ec2eeU,
  0x3cc366123d7c63d8U, 0x3ddfe4f4bd22d50fU, 0x3d02440cbe2d0260U, 0xbb02440c3d743f96U,
  0xbcb31d903e6c1b56U, 0xbe2af950bdaf0b71U, 0x3d9ec2eebc22d50fU, 0xbe3938c1be06562cU,
  0xbe372fb13d9ec2eeU, 0x3e415d023e5ddbe4U, 0xbe02440c3e4f9c73U, 0xbdd3ae93be59c9c4U,
  0xbbc36612bc82440cU, 0xbe63f7153e0e7a6dU, 0xbcc36612be498142U, 0x3e813f84bdbb41d2U,
  0xbce3f715be477832U, 0xbd63f715be128c8eU, 0xbd3b41d23e1cb9dfU, 0xbc82440cbd436612U,
  0x3d928c8e3e55b7a4U, 0xbc02440c3e14959eU, 0xbe4366123cc36612U, 0x3e044d1cbddfe4f4U,
  0x3d5bd2d53e2f0b71U, 0x3d928c8e3d0a684dU, 0xbd969eaebe702d76U, 0x3e3526a13e24de1fU,
  0x3d969eae3bc36612U, 0xbd5bd2d53e59c9c4U, 0xbe3938c13b02440cU, 0xbe2f0b71bc22d50fU,
  0x3cb31d903d63f715U, 0xbdd3ae933dc77832U, 0x3df43f963d22d50fU, 0x3dc366123b82440cU,
  0x3d199af9bc0f5d72U, 0x3c8f5d7200000000U, 0xbde66876bd47afddU, 0xbc4ccea33c23d882U,
  0xbd4ccea3bd000125U, 0x3d999af93c0f5d72U, 0xbd8a3eae3c23d882U, 0x3db853923e2290d0U,
  0xbd1eb9bebdae160aU, 0xbdbd72563d70a5ffU, 0xbd666876bdca3f40U, 0xbdd70c2abca3d882U,
  0x3d91ecd33d87af4bU, 0x3ccccea3bde3d915U, 0xbc6149b2bd000125U, 0x3dbae2f4baa3d882U,
  0x3cb853923d051fe9U, 0xbdd70c2abd9eb9beU, 0xbd3853923d570c2aU, 0xbb23d882bc23d882U,
  0x3e0cce10bd0f5d72U, 0xbdcf5e04bdeb873aU, 0xbe06679aU, 0x3da3d882bc75c4c3U,
  0xbd2e160abd51ed66U, 0x3d4ccea3bc23d882U, 0xbdf85424bc23d882U, 0xbd3853923d385392U,
  0xbb75c4c3bdfae387U, 0x3cc2911abdc7afddU, 0x3aa3d8823d47afddU, 0xbba3d882bc8f5d72U,
  0xbc385392bd199af9U, 0xbd970b973c385392U, 0xbd9eb9bebdd99b8cU, 0xbd91ecd33d051fe9U,
  0x3d3334cebdb85392U, 0xbdeb873abd23d882U, 0xbc8f5d72bd3d7256U, 0xbd42911a3d1eb9beU,
  0xbb23d8823cc2911aU, 0x3d47afdd3de8f7d9U, 0xbceb873a3c75c4c3U, 0x3d0f5d72bd87af4bU,
  0xbd8f5d72bd0f5d72U, 0x3ce149b2bd9eb9beU, 0xbd28f746bda14920U, 0xbd051fe9bd1eb9beU,
  0xbb3698cc3caefd19U, 0xba737665bdbe347fU, 0x3cbe347f3d1829ffU, 0x3d8156e63d6bdab2U,
  0xbce43effbd8ad985U, 0x3ce43eff3dba66a5U, 0xbde80cd8bd6bdab2U, 0x3cf376653d833dd2U,
  0xbd7376653dba66a5U, 0xbd6fa88c3d3698ccU, 0xbd32caf33a737665U, 0xbde07126bd8ea760U,
  0x3d1829ffbaf37665U, 0x3dad162c3c550798U, 0x3dbe347fbd7edff2U, 0x3af376653d77443eU,
  0xbda76165bcb698ccU, 0x3af37665bbb698ccU, 0x3a7376653cfb1218U, 0x3c276165bdc3e946U,
  0xbdcb84f93d7b1218U, 0xbd737665bd833dd2U, 0x3ca761653dad162cU, 0xbdbe347fbaf37665U,
  0x3d1829ffbc276165U, 0xbcdca34cbca76165U, 0x3db2caf33d23938dU, 0x3d8ad985bd7b1218U,
  0x3da57a79bd58d571U, 0xbde07126bce43effU, 0x3d9275383da1ac9fU, 0xbbd507983d7b1218U,
  0x3dc202593dc3e946U, 0xbd870bacbd607126U, 0x3daefd193ddabc5fU, 0xbdb2caf3bd0cc072U,
  0x3c45d032bd2efd19U, 0x3dc7b71f3d32caf3U, 0xbd5ca34cbdb0e405U, 0x3d5ca34c3cebdab2U,
  0xbdba66a53cc5d032U, 0x3d8cc0723d6fa88cU, 0x3d3e347fbdad162cU, 0x3d32caf3bd870bacU,
  0x3df18f793d8ad985U, 0x3d9ddec6bbf37665U, 0x3ccd6be5bdc5d032U, 0xbd3a66a53dc7b71fU,
  0xbeb49bf23e53ea2dU, 0x3d2d6281bd2d6281U, 0x3eca48423e40a658U, 0x3ed652a8bec7dfc8U,
  0x3b9a1eac3ed3ea2dU, 0x3c672e02be7a71d8U, 0x3d672e02bead6281U, 0xbec0a6583d2d6281U,
  0xbd06dad7be3bd562U, 0xbed652a8bee25d0eU, 0x3c672e023e0babccU, 0x3e9eefa23e8babccU,
  0xbeafcafcbe40a658U, 0x3e23c0973d2d6281U, 0xbec5774d3d2d6281U, 0xbedff493be954db7U,
  0x3df0cfedbe5d8c18U, 0xbe1eefa23e5d8c18U, 0x3e8e14473eb49bf2U, 0x3e672e02be9c8727U,
  0x3ead62813e7f42ceU, 0x3de72e02bd06dad7U, 0x3e1a1eacbeafcafcU, 0x3da3c0973e40a658U,
  0x3ebbd5623e9a1eacU, 0xbe45774d3de72e02U, 0x3e4a48423ecf1937U, 0x3ecf1937bdd3ea2dU,
  0x3e37046dbda3c097U, 0x3dd3ea2dbee72e02U, 0xbe907cc2beb96ce7U, 0xbf18ea6f3ea1581dU,
  0x3d2d6281beca4842U, 0xbe58bb23bef8095eU, 0xbedd8c18be323377U, 0x3ed181b2bddd8c18U,
  0xbe23c097bd672e02U, 0xbe9c87273e97b632U, 0x3eccb0bd3e8e1447U, 0xbe86dad7be37046dU,
  0x3eb49bf2beafcafcU, 0x3e37046dbe4f1937U, 0x3eb233773e0babccU, 0x3ecf1937be53ea2dU,
  0x3ed181b23e625d0eU, 0x3e4f1937beff42ceU, 0x3dc0a6583dad6281U, 0x3e3bd562bef8095eU,
  0xbd9d43173d1402e8U, 0x3e72d4c5be243339U, 0xbe7774dc3e81828cU, 0xbd3903a2bdb4638bU,
  0x3cde045c3df9c4e7U, 0x3cb903a2be4243d1U, 0x3cf084b9be243339U, 0xbe3b53aebe8beac0U,
  0x3ccb84003e62a474U, 0xbdbda3ba3c5e045cU, 0xbe874aa93e36b397U, 0xbd4243d1bd2fc374U,
  0xbe0872aebe502417U, 0xbe5274233b9402e8U, 0x3e5bb4513e8beac0U, 0xbe7e64ff3c1402e8U,
  0xbe7e64ff3b9402e8U, 0xbe4243d1bdd96445U, 0x3d81828c3e4493dcU, 0x3e92dae2bcf084b9U,
  0x3e62a474be0d12c6U, 0xbe72d4c53e79c4e7U, 0xbdc6e3e83e2fc374U, 0xbe11b2dd3e527423U,
  0x3e4243d13e72d4c5U, 0xbdd02417bd81828cU, 0xbe2b235d3dbda3baU, 0x3e72d4c5bc5e045cU,
  0x3e6994963e321380U, 0x3e4b84003c81828cU, 0xbdf084b9bcde045cU, 0xbe4243d1bdf084b9U,
  0xbdf524d03dd4c42eU, 0xbb1402e8bd268345U, 0xbde2a4743e243339U, 0x3dbda3ba3b9402e8U,
  0xbe8f62d1be72d4c5U, 0xbda683453e8872aeU, 0xbe4dd40b3e18a2ffU, 0xbb9402e8be79c4e7U,
  0xbd8f62d1bdcb8400U, 0x3e82aa91bcf084b9U, 0xbda683453e4933f3U, 0x3dd4c42e3dc243d1U,
  0x3e7c14f3bdd96445U, 0x3da1e32ebe7774dcU, 0x3e3213803d8f62d1U, 0x3e7084b93e7c14f3U,
  0x3f0e0f5dbeb7ac6dU, 0xbe8ca003bbb7ac6dU, 0x3eb7ac6dbea67443U, 0xbe48e497bef1124fU,
  0x3f1dd82e3f1dd82eU, 0xbef6cfb3bf307fb1U, 0xbe65978800000000U, 0xbbb7ac6d3d7c8d16U,
  0xbe37ac6dbe545f5eU, 0x3ed45f5e3ee2b8d7U, 0x3d20b6e03e48e497U, 0x3f09c1523e9dd82eU,
  0x3ef3f1023dc32734U, 0xbeaf10583e48e497U, 0xbdc32734bebd69d1U, 0xbe6b54ec3d09c152U,
  0xbe4327343e5a1cc2U, 0xbe432734be6b54ecU, 0xbf0ca0033f0f7eb5U, 0xbe2c31a6be5fda25U,
  0xbee597883eeb54ecU, 0x3de59788be953c19U, 0xbe153c19bf09c152U, 0x3ef1124fbf01253dU,
  0x3e3d69d13eff6bc7U, 0x3f363d153dfc8d16U, 0x3d89c1523f0e0f5dU, 0xbcb7ac6dbdda1cc2U,
  0xbee2b8d73da0b6e0U, 0xbe4ea1fbbce59788U, 0xbed45f5ebf0403efU, 0x3eb1ef0a3d09c152U,
  0xbe981aca3e9af97cU, 0xbe20b6e0bea39592U, 0x3e37ac6dbe5fda25U, 0x3eaf1058beaf1058U,
  0x3db7ac6d3cb7ac6dU, 0x3ee2b8d73ce59788U, 0x3f0851f9bef1124fU, 0xbdb7ac6dbec8e497U,
  0x3d20b6e03e81253dU, 0xbe7c8d163d09c152U, 0xbec8e4973e953c19U, 0x3ea0b6e0bf0ca003U,
  0x3bb7ac6dbc89c152U, 0x3d09c1523ef9ae64U, 0xbe9dd82ebee8763bU, 0x3e925d67be5fda25U,
  0x3d22e944bde51807U, 0xbe6f469c3d8e8c1bU, 0x3df45de63da8008eU, 0xbe4ba3943db22f22U,
  0xbe34bac7be745de6U, 0x3e162f0a3df45de6U, 0xbdb7466c3e71d240U, 0x3c745de6be01d1e2U,
  0xbe4400a53e534684U, 0x3d0e8c1b3e745de6U, 0x3e745de63e045d87U, 0x3e6000bd3e55d229U,
  0xbe3c5db7be76e98aU, 0x3d417500bd417500U, 0xbd0e8c1b3d7e8c7aU, 0x3ea1a371be94e938U,
  0x3da8008e3d22e944U, 0xbdd0badfbe9117c0U, 0x3e6f469c3d22e944U, 0xbe8e8c1bbe67a3acU,
  0xbc745de6be01d1e2U, 0xbdc175003e2fa37dU, 0x3e06e92c3d8e8c1bU, 0xbdef469c3e1b4654U,
  0xbd417500bd045d87U, 0xbdea2f513d93a365U, 0xbd0e8c1bbe0974d1U, 0xbd98baafbe5d7517U,
  0xbdef469c3e3c5db7U, 0x3e1b4654U, 0x3e37466cbd93a365U, 0xbe28008ebe1117c0U,
  0xbd93a365be6cbaf6U, 0x3e585dcfbde000bdU, 0xbe2574e9bde000bdU, 0x3d37466c3e4ba394U,
  0x3d6000bdbdc68c4aU, 0x3e845d87be13a365U, 0x3d845d873c8e8c1bU, 0x3e01d1e23e39d211U,
  0x3e50badf3e01d1e2U, 0xbd0e8c1b3e882effU, 0xbdbc5db7bd18baafU, 0xbdea2f51be2a8c33U,
  0x3da2e9443d6a2f51U, 0xbd6a2f513e22e944U, 0xbdc17500bdd5d229U, 0xbe585dcfbe13a365U,
  0xbda73eee3da39c2cU, 0x3d82e357be54b16cU, 0x3e2cb312bd4b9a86U, 0xbd7e81283d445502U,
  0xbdddc8523e21cacaU, 0x3e33f897bd02e357U, 0x3d2e8473bdf398e1U, 0xbdfe81283d9c56a7U,
  0xbde50dd7be239c2cU, 0x3e3055d43d82e357U, 0x3d7e8128bcae8473U, 0x3d616b15bde8b099U,
  0x3e4283a13e0dcb9dU, 0xbc4b9a863c68b099U, 0x3db227363de50dd7U, 0xbe633c76bd3d0f7dU,
  0xbe21caca3ce8b099U, 0xbdcb9a86be2e8473U, 0xbd8dcb9dbd82e357U, 0x3bae8473be0f9cffU,
  0xbe18b3e43c116e60U, 0x3d82e3573e133fc1U, 0xbe133fc1bd02e357U, 0xbd4455023e2cb312U,
  0xbe3d0f7dU, 0xbe66df383d82e357U, 0x3de50dd7bd02e357U, 0x3c9ff969bde8b099U,
  0x3d18b3e43dbd0f7dU, 0x3dc7f7c43dbd0f7dU, 0x3e633c76bd18b3e4U, 0xbd9511223e18b3e4U,
  0xbdddc852bdcb9a86U, 0xbe2ae1b1bc2e8473U, 0xbe273eeebd445502U, 0xbae8b099be2ae1b1U,
  0xbd18b3e4bdaae1b1U, 0x3e47f7c43e5f99b3U, 0x3e0f9cff3e33f897U, 0xbc116e60be239c2cU,
  0xbdcb9a863d0a28dbU, 0x3d6ff61ebb68b099U, 0xbdddc852bd116e60U, 0xbb68b099be1e2808U,
  0x3e04b4b73e068619U, 0xbde8b0993d616b15U, 0x3e5dc852bd445502U, 0x3dfade663e3b3e1cU,
  0xbdd63abebdf29558U, 0xbdc9a0b33d10eb80U, 0x3ddfae463d173886U, 0x3ddfae463dad461aU,
  0x3dd96140bd173886U, 0xbdfc08dfbddfae46U, 0xbddfae46bc173886U, 0x3c8a9e7bbb973886U,
  0xbdff2f63bdf8e25dU, 0x3da0ac0f3dc353adU, 0xbcb06c9cbdccc735U, 0xbce2d4c8bc62d4c8U,
  0x3d4353ad00000000U, 0x3dccc7353d10eb80U, 0x3d4353adbd0a9e7bU, 0xbd9a5f09bd812af3U,
  0x3da6f914bd49a0b3U, 0xbdad461abe352661U, 0xbdbd06a83ca3d291U, 0x3e0c31bdbc173886U,
  0x3d23d291bde5fb4dU, 0xbd9412043c973886U, 0x3d90eb803e15a545U, 0xbdfc08df3d173886U,
  0xbdf5bbdabdb39320U, 0xbb49a0b3bd045175U, 0xbc62d4c8be02be34U, 0x3e05e4b7bd1d858cU,
  0xbd9a5f09be0777f8U, 0xbd6f6ed4bdc353adU, 0xbe173886bdcfedb8U, 0x3da3d291bcbd06a8U,
  0xbd0a9e7bbd75bbdaU, 0x3d23d291be0c31bdU, 0xbd3d06a83d0a9e7bU, 0x3dff2f633d10eb80U,
  0xbdc353adbc306c9cU, 0xbe0f583f3dd96140U, 0xbdccc7353d7c08dfU, 0xbb973886be480d72U,
  0x3e10eb80be127ec2U, 0xbddfae46bcb06c9cU, 0x3dff2f633db6b9a2U, 0x3d8a9e7b3d941204U,
  0x3dd63abebdb06c9cU, 0x3db9e0253d8dc4feU, 0x3d973886bc173886U, 0x3dbd06a83dd63abeU,
  0x3e0742533e058c04U, 0x3e245d8e3e0e1b8eU, 0x3dde940700000000U, 0xbc88f8a2be08f8a2U,
  0xbdc32f19be33c654U, 0xbddb27693d4d74f2U, 0x3e3fc27bbe2b36caU, 0xbdf9f8f33d6200a4U,
  0x3e432f193e38e941U, 0xbdd7bacbbd245d8eU, 0x3d5b27693e058c04U, 0x3cdb2769be245d8eU,
  0xbda7ca2c3c88f8a2U, 0x3e16ab18bca45d8eU, 0xbe0e1b8e3da7ca2cU, 0x3db21005be3e0c2dU,
  0xbe03d5b5be08f8a2U, 0xbd1d8453bdcd74f2U, 0x3e3c55df3e245d8eU, 0x3d3fc27b3d2b36caU,
  0x3daea368be006917U, 0x3d9a17b53d68d9dfU, 0xbd08f8a23d933e7aU, 0x3da45d8e3bdb2769U,
  0xbde56d413ccd74f2U, 0xbe4f2b40bd933e7aU, 0xbe22a740be3fc27bU, 0xbdde94073e544e2eU,
  0xbd4d74f23c5b2769U, 0xbd88f8a2be38e941U, 0xbe3059b6bd858c04U, 0x3c245d8ebda45d8eU,
  0xbce8d9dfbd768c56U, 0x3d68d9df3da45d8eU, 0xbe20f0f1bda45d8eU, 0x3d3fc27bbd8c653fU,
  0x3e29807b3e59711aU, 0x3dab36cabd38e941U, 0x3db57ca33e2613deU, 0xbe2ced183ddb2769U,
  0x3e27ca2c3d021f66U, 0xbe2ced18bdfd6591U, 0x3df68c563defb31aU, 0xbd2b36ca3de56d41U,
  0x3dc69bb73e357ca3U, 0x3d6200a43e20f0f1U, 0x3adb27693e186167U, 0xbddb27693dde9407U,
  0xbee7f9b4be193b41U, 0xbedf7668bd3b486cU, 0x3c8834abbd4c4f00U, 0xbdff62c0beae837aU,
  0x3e54d24bbe10b7f6U, 0x3ea82103be5090a6U, 0xbd993b413e0834abU, 0x3ec1aae3bdc3cbb6U,
  0x3eb706c6bdc3cbb6U, 0x3e8a557ebedb34c4U, 0x3ddd55953eb92799U, 0x3eac62a93db2c520U,
  0x3ec5ec89bd0834abU, 0xbe2e837a00000000U, 0xbe8613d8bee7f9b4U, 0x3da1be8bbe8c7650U,
  0x3e3706c6bcaa41d6U, 0xbd4c4f00be5913f1U, 0x3ed6f31ebed090a6U, 0x3ed4d24bbeae837aU,
  0xbed4d24b3e6a1a86U, 0x3ed6f31e3daa41d6U, 0x3c4c4f00beea1a86U, 0x3d2a41d6be4c4f00U,
  0x3e193b413e6e5c2bU, 0xbe8a557ebebd693dU, 0xbe7f62c03de5d8e1U, 0x3c4c4f003ddd5595U,
  0xbdaa41d63e3b486cU, 0xbed4d24bbeec3b58U, 0xbe6e5c2b3ecc4f00U, 0xbeb4e5f33ebb486cU,
  0xbe5090a63daa41d6U, 0x3e8613d8be8a557eU, 0xbccc4f00bd193b41U, 0xbdcc4f00bedf7668U,
  0x3dbb486c3c8834abU, 0x3e2e837a3e3b486cU, 0x3eb706c63dc3cbb6U, 0x3d4c4f003daa41d6U,
  0xbd193b413d8834abU, 0x3dcc4f003f072442U, 0xbe32c520bd5d5595U, 0xbeb2c5203e480d5bU,
  0x3dcc4f00bef90049U, 0x3e43cbb63e193b41U, 0xbd90b7f6bd3b486cU, 0x3ed090a6be0834abU,
  0x3e15c32fbd98b2efU, 0x3e0134f1bdca9ea9U, 0xbdb9002bbe02acd1U, 0x3cb030ec3e34988cU,
  0x3d871470bd3befebU, 0x3d536de8bd3befebU, 0x3e0424b13d0cf3efU, 0x3b3befebbcc7aee9U,
  0x3c8cf3efbe0424b1U, 0xbd4d8e693d8cf3efU, 0x3d36106b3d76aae4U, 0xbcbbefeb3de7fc26U,
  0x3e2471edbcc7aee9U, 0xbcf6aae43d8424b1U, 0xbc2471ed3db9002bU, 0xbe1d1a8ebd071470U,
  0x3d8a04303d871470U, 0xbd0134f1be18b2efU, 0xbd36106bbd8fe3b0U, 0xbd0cf3efbdcd8e69U,
  0x3da761ad3c98b2efU, 0xbdf6aae43dd07e28U, 0xbdff7a233de21ca6U, 0xbe18b2efbd8cf3efU,
  0xbdeddba53c3befebU, 0xbdeddba5bbeaebe6U, 0x3dd65da7bdca9ea9U, 0x3df3bb25bdd36de8U,
  0xbdb6106b3df3bb25U, 0x3e1a2acebdf99aa3U, 0xbdad412c3e200a4dU, 0x3d8a0430bd650c66U,
  0xbd47aee93cdf2ce6U, 0x3e28d98d3d36106bU, 0x3dbedfab3d9e926eU, 0xbe0134f13df6aae4U,
  0xbe0a0430be088c51U, 0x3e088c513c98b2efU, 0xbd536de83db6106bU, 0x3e3a780bbda471edU,
  0x3da1822e3c8134f1U, 0xbda761adbd5f2ce6U, 0xbcf6aae43d95c32fU, 0xbdca9ea9bd70cb64U,
  0x3d9ba2aebd8a0430U, 0x3e0424b13d5f2ce6U, 0xbdb9002bbdf6aae4U, 0x3d0cf3efbcd36de8U,
  0x3e0534803e83ec9cU, 0xbd19b2bb00000000U, 0x3e735afd3e7b0a54U, 0xbe1ed24abcb87014U,
  0xbe42af31bda91168U, 0x3dae30f73d99b2bbU, 0xbde68c18be787a8cU, 0xbd6baba73e2ba12fU,
  0xbe8e2bbabd8014f1U, 0x3ddc4cfcbe401f6aU, 0x3e70cb363d6baba7U, 0xbdfb0a54be216211U,
  0xbc4cee4fbdb35085U, 0x3d99b2bbbe691bdfU, 0x3dae30f73b23f1d9U, 0xbd8f739ebd8f739eU,
  0xbe7b0a543e6e3b6eU, 0xbcf5eac5be02a4b9U, 0xbdfb0a54be335085U, 0x3c23f1d93d853480U,
  0x3e82a4b9bdebaba7U, 0xbe4f7e17bca3f1d9U, 0x3e4a5e88be83ec9cU, 0xbe1ed24a3e120365U,
  0x3e2911683dd72d6dU, 0xbe8014f1bdf0cb36U, 0x3cb870143c4cee4fU, 0xbe02a4b9be5c4cfcU,
  0x3e0f739ebe2e30f7U, 0x3e82a4b93cf5eac5U, 0xbdd20ddebbf5eac5U, 0xbd8f739ebd94932cU,
  0x3e59bd343e291168U, 0xbe572d6d3e6e3b6eU, 0x3d8014f1bd853480U, 0x3d23f1d9bdebaba7U,
  0xbd99b2bb3dfb0a54U, 0xbda3f1d9be1ed24aU, 0x3b23f1d9bc75eac5U, 0xbe735afd3e82a4b9U,
  0xbe815cd53e30c0beU, 0xbe70cb363b23f1d9U, 0xbc8f739ebea16211U, 0x3e94932cbdb87014U,
  0x3e75eac5bd23f1d9U, 0x3e8534803de16c8bU, 0x3d99b2bb3ea2a9f5U, 0xbe6e3b6ebdfb0a54U,
  0x3b325f673cbd855eU, 0x3d3d855ebd648a3dU, 0x3e10ed84bd9949fcU, 0xbe125243bde753bbU,
  0xbc48ab54bdc8ab54U, 0xbab25f67bcc8ab54U, 0x3dbd855e3e1949fcU, 0x3d4318593d9c137bU,
  0xbc5ef741bdf80cacU, 0x3cd3d14b3db528e5U, 0xbdb528e5bd75432eU, 0xbd96807f3d6a1d37U,
  0x3e13b702bdb528e5U, 0x3dce3e503bdef741U, 0x3e05c78e3d6fb033U, 0x3e10ed843c05c78eU,
  0x3dce3e503d37f263U, 0x3df80cacbdd3d14bU, 0x3e30faa83cdef741U, 0x3e1d783a3d37f263U,
  0x3b85c78e3dc8ab54U, 0xbd596446bdd96446U, 0x3e019951bd88910bU, 0x3daa02efbda1a676U,
  0xbd2ccc6c3dc8ab54U, 0xbd003492bc1c137bU, 0x3d96807f3e17e53eU, 0x3c85c78ebe0cbf47U,
  0xbe16807f3e125243U, 0xbcbd855e3d431859U, 0xbdc04edcbc90ed84U, 0xbd5ef7413d7ad62aU,
  0x3d0b5a893dfad62aU, 0xbdefb0333d5ef741U, 0x3e08910b3e1d783aU, 0xbde753bb3e003492U,
  0xbd6fb033bd48ab54U, 0x3e13b7023d48ab54U, 0x3e0f88c6bd16807fU, 0xbd93b702bd0b5a89U,
  0x3c325f67be151bc0U, 0x3dce3e50bd325f67U, 0xbb85c78e3d93b702U, 0xbd9949fc3d90ed84U,
  0x3daf95eabca73971U, 0x3d0034923e2f95eaU, 0xbdaccc6cbd2ccc6cU, 0x3d93b702bd1c137bU,
  0xbea0ea65bdde377fU, 0x3e8bd7e4be34127cU, 0x3e8bd7e4be975659U, 0x3ec924febe842e41U,
  0xbe8dc24c3e24bf36U, 0xbe0243d7be4b0f66U, 0x3d91971ebe938187U, 0x3da0ea65bef34a00U,
  0x3e69b5f43d65e123U, 0x3e24bf36U, 0x3d9940c13e568ddbU, 0xbcd68ddbbc9940c1U,
  0xbeac68da3db03dabU, 0xbcd68ddb3e8dc24cU, 0xbed0cea13db7e74fU, 0xbb753469bea4bf36U,
  0x3c9940c13eac68daU, 0xbd91971e3db03dabU, 0x3e52b90a3d9940c1U, 0xbe65e1233e09ed7bU,
  0x3e842e41be0dc24cU, 0x3ded8ac53e3f90f1U, 0xbe52b90a3ec5502cU, 0xbded8ac5be303dabU,
  0xbea0ea653ea89408U, 0xbe473a95bc753469U, 0xbe956bf03dcee439U, 0x3e8618a9bebda689U,
  0x3e289408bbf53469U, 0xbdf534693de5e123U, 0xbe4365c4bd91971eU, 0x3eb9d1b7bda89408U,
  0xbe52b90abeb5fce6U, 0x3cd68ddbbe24bf36U, 0x3e8dc24cbe80596fU, 0xbd8243d7bcb7e74fU,
  0xbe9756593e289408U, 0x3e52b90a3e1d1593U, 0x3e80596f3d753469U, 0xbcb7e74fbdde377fU,
  0x3e6d8ac53dc73a95U, 0x3e52b90abe473a95U, 0xbd37e74f3e753469U, 0x3ea894083dbf90f1U,
  0x3e303dabbecee439U, 0x3dcee439be8dc24cU, 0x3eac68dabe4ee439U, 0x3e7cde0cbeb4127cU,
  0x3da066d73cf1a4e7U, 0xbda8bbfabdc1bb61U, 0xbde73a7d3c95fc6cU, 0x3cf1a4e73daefbd4U,
  0x3d9811b53c9e518fU, 0xbded7a563c8da74aU, 0x3dd265a7bc3750f7U, 0x3c47fb3bbb47fb3bU,
  0x3d694fc6bd75cf79U, 0xbcb750f7bd897cb9U, 0xbd50505e3d227c20U, 0x3c47fb3bbcc7fb3bU,
  0xbdeb650d3b055227U, 0x3c055227bd47fb3bU, 0x3d9811b53c9e518fU, 0xbc95fc6cbd6d7a56U,
  0xbdd265a73b055227U, 0xbd332665bdc7fb3bU, 0xbdd265a7bd3750f7U, 0xbc055227bcd8a580U,
  0xbda8bbfa3d833cdfU, 0x3de525343ddabac9U, 0xbdf9fa0abd75cf79U, 0xbda066d7bd3750f7U,
  0x3cc7fb3bbda6a6b1U, 0xbda8bbfabd9c3c46U, 0x3d6525343e044783U, 0x3dca1084bd7e249cU,
  0x3d812796bc95fc6cU, 0x3d3fa6183ddcd011U, 0xbc8da74abb47fb3bU, 0x3c8552273dd69037U,
  0x3d097cb93d71a4e7U, 0x3ce94fc6bdf3ba30U, 0x3d47fb3b3db9663fU, 0x3d097cb9bd097cb9U,
  0x3c8da74abdaefbd4U, 0x3d8552273dd8a580U, 0x3d50505e3d332665U, 0x3dbb7b87ba855227U,
  0xbd3fa618bd9811b5U, 0xbd15fc6c3be94fc6U, 0x3db750f7bc95fc6cU, 0x3d5cd0113d47fb3bU,
  0xbce0faa3bde0faa3U, 0x3c3750f7bc8da74aU, 0x3dc3d0aabdcc25cdU, 0x3d3b7b87bda27c20U,
  0x3dcaeb203d928d5eU, 0x3dabeac23d508e1aU, 0xbca91945bdba0232U, 0xbd8475ee3d23764cU,
  0xbd1830583def8e78U, 0x3d6cbcfbbca91945U, 0x3c9dd3523dbfa52cU, 0x3da3764c3d9b01d5U,
  0x3d9dd352bccaeb20U, 0xbdaebc3f3cf802eeU, 0x3c87476bU, 0x3c1dd352bdd90290U,
  0xbdb730b6bd01a471U, 0xbda647c83d8cea64U, 0x3d6cbcfbbd9dd352U, 0xbc6177083dbfa52cU,
  0x3d8fbbe23c617708U, 0xbdc276a93dd35f97U, 0xbd1830583d4aeb20U, 0xbe030d30bd0cea64U,
  0xbd508e1abddbd40dU, 0x3dabeac2bd3a0232U, 0x3d128d5e3d345f39U, 0x3cf802ee3db730b6U,
  0x3ddea58a3d4aeb20U, 0xbd5bd40d3ce17708U, 0x3da0a4cf3d8cea64U, 0x3d508e1abd128d5eU,
  0x3dbfa52cbc345f39U, 0xbce17708bde9eb7eU, 0x3d617708bd01a471U, 0x3d1dd352bce17708U,
  0xbdbfa52cbd128d5eU, 0x3dd35f973e07476bU, 0xbddbd40d3d725ff4U, 0xbdbcd3af3de9eb7eU,
  0x3d9830583c345f39U, 0xbcbfa52cbdef8e78U, 0x3db18dbc3dba0232U, 0xbde177083d0cea64U,
  0xbda0a4cfbdd08e1aU, 0xbd8475eebde17708U, 0x3d291945be32f67bU, 0xbbb45f39bda647c8U,
  0x3b87476bbd7802eeU, 0xbdd08e1abcf802eeU, 0xbdb45f39bcb45f39U, 0x3db45f393decbcfbU,
  0x3d05c96dbdcf7f0fU, 0x3e2afdc3be46d7bdU, 0xbd6fe48abd7a672bU, 0x3db4b3bfbc2ed0c7U,
  0x3c0d27ef3d69bbb4U, 0x3d869a88be8ed093U, 0xbd793e223d390fdfU, 0xbe3431803d405663U,
  0xbda805103e903bc2U, 0xbc994441be37bb79U, 0x3d56d5d6be896745U, 0x3e3280e43d30c00cU,
  0x3e721fd5bd8e9559U, 0x3e0e56b2bd94fad6U, 0xbdab061cbe830501U, 0xbd79fd693d40ae77U,
  0xbcd19a07bbe4a808U, 0xbe1d33863e2b7e07U, 0x3de4a808be7c7989U, 0xbdfc7989be3c2a47U,
  0xbdf2f289be94dd65U, 0xbe13ac86be4a74c8U, 0x3e7090c93e0a2585U, 0xbe64a808be519a07U,
  0xbe77b60abcd19a07U, 0x3e1d33863e8ee905U, 0xbd5b2109bdf7b60aU, 0x3de96b893d64a808U,
  0x3e21f7063e45b147U, 0x3d056205bcd19a07U, 0x3d21f706be696b89U, 0x3d0ee905be32a347U,
  0xbe0c87463e13ac86U, 0xbe81cf65be26ba86U, 0x3e32a347bd64a808U, 0x3b9870063e291c46U,
  0x3dee2f083e6bcd49U, 0xbe755449be39c887U, 0xbe291c463e58bf48U, 0x3e45b1473e8692e5U,
  0x3e45b147bda1f706U, 0xbdccd688bd6e2f08U, 0x3dab7e073be4a808U, 0xbe40edc7be973f25U,
  0xbe160e453e07c3c5U, 0xbdfc79893d64a808U, 0xbd2b7e073d8ee905U, 0xbdab7e07bbe4a808U,
  0x3e45b1473c987006U, 0x3e1f95463be4a808U, 0xbd987006bd6e2f08U, 0xbe565d883d187006U,
  0xbe3c2a473e187006U, 0xbd8a25853d056205U, 0xbe2b7e073df2f289U, 0x3e1ad1c6be6bcd49U,
  0xbd8562053e21f706U, 0xbdb505063c187006U, 0xbe07c3c5bb187006U, 0xbdbe8c073e7090c9U,
  0xbe114ac53b987006U, 0x3c64a8083cf7b60aU, 0xbe350506bd93ac86U, 0xbdccd6883e87c3c5U,
  0xbe19b2cbbd24ad46U, 0x3e8d58ff3d668c2fU, 0x3e7c81273e74454aU, 0xbd668c2f3dd61475U,
  0xbc5b91b33e401f7dU, 0x3d94358cbe276be5U, 0x3e0bf9af3e401f7dU, 0x3e98537bbe561475U,
  0x3e5614753e1f3008U, 0x3eaa2a843d83bdd2U, 0xbe5e50523d668c2fU, 0xbe7186ac3e0eb84eU,
  0xbc03bdd2be4dd897U, 0xbe00ff333dcb19f9U, 0x3e067c71bc2fa7c2U, 0xbe067c71be694acfU,
  0xbea1eea7bd7186acU, 0xbd8eb84e3e03bdd2U, 0xbe3d60debe093b10U, 0xbe276be5be7703e9U,
  0xbdaa2a843dfc8127U, 0xbe21eea73e326661U, 0xbe668c2f3e6ec80cU, 0xbc83bdd2bd459cbaU,
  0x3e5355d63df703e9U, 0xbd03bdd23c2fa7c2U, 0x3ea76be53d7c8127U, 0xbd19b2cb3e42de1bU,
  0x3d668c2fbe5b91b3U, 0xbe24ad46bd9f3008U, 0xbe352501bd83bdd2U, 0x3daa2a843e2a2a84U,
  0x3eae4873be8bf9afU, 0x3dcb19f9be867c71U, 0x3d03bdd2be326661U, 0xbd5097373cf186acU,
  0x3df186ac3dfc8127U, 0xbeaa2a843e276be5U, 0xbe326661bd8eb84eU, 0xbe80ff33bc83bdd2U,
  0x3e80ff33bcdb91b3U, 0xbe7f3fc6bd3aa23eU, 0xbe9c71693ea60c95U, 0xbe668c2f00000000U,
  0x3e96f42bbe9c7169U, 0x3e7186acbc5b91b3U, 0xbdcb19f93d2fa7c2U, 0xbe90179ebe2a2a84U,
  0xbde4fe8dbd6178aaU, 0x3e4a9268bd4c555aU, 0xbe33ac28be07a296U, 0xbd769bfa3daca062U,
  0xbe5fb5b93c291a7fU, 0xbce178aa3e23d1abU, 0xbe25949c3dbab7edU, 0xbe4386a43d37320aU,
  0xbe0259c2be05dfa5U, 0x3dfa21dc3dd36120U, 0x3c8ceb6abdb02645U, 0x3d536120be2ca062U,
  0x3e0259c2bd5a6ce4U, 0xbe4386a43d9e88d8U, 0xbe1b02f53e0ceb6aU, 0xbe3e3dcfbd7da7bfU,
  0xbde8846fbe0b2879U, 0x3e07a2963e4c555aU, 0x3da91a7f3d1b02f5U, 0x3b6178aa3dc1c3b2U,
  0x3dfda7bf3d90714dU, 0x3dbe3dcf3e3ab7edU, 0xbdd36120bd93f72fU, 0x3e27578e3e1b02f5U,
  0xbe4fdb3dbc454994U, 0x3cc54994be2add71U, 0x3c291a7f3d220ebbU, 0x3c8ceb6abe1b02f5U,
  0x3dddf2c73e2e6354U, 0xbd13f72f3e0eae5cU, 0x3dec0a523e23d1abU, 0xbe302645be0ceb6aU,
  0xbd6178aa3d13f72fU, 0xbe1940033e0eae5cU, 0xbcfda7bf3e096587U, 0xbdef9034be07a296U,
  0xbd291a7fbe0259c2U, 0x3da20ebb3de4fe8dU, 0xbcc54994bde178aaU, 0x3d3e3dcf3d05dfa5U,
  0x3cfda7bfbd9e88d8U, 0x3e204bc93cd36120U, 0xbd93f72fbda91a7fU, 0xbd3e3dcfbda91a7fU,
  0xbe41c3b23e2e6354U, 0xbd220ebbbe13f72fU, 0x3de4fe8d00000000U, 0x3e0b2879bc291a7fU,
  0x3d96caee3d9edef2U, 0x3daf06f9bdc74303U, 0xbdc491ae3da4419fU, 0xbdf2586d3cd76b0bU,
  0xbddccdb83c41e057U, 0x3df2586d3e2afcf7U, 0xbdfa6c70bc41e057U, 0x3e06a2e73ddccdb8U,
  0xbcecf5bf3df7bb19U, 0x3ca19048bcc1e057U, 0xbdc74303bdffcf1dU, 0xbdaf06f9bc41e057U,
  0xbb81403a3da9a44cU, 0xbdcca5b1bd474303U, 0x3db71afdbdb469a6U, 0x3dd2085d3db469a6U,
  0x3db71afdbe01403aU, 0x3db9cc533e09543dU, 0x3d4ca5b1bcf7bb19U, 0xbe157243bdc9f45aU,
  0x3dda1c613d576b0bU, 0xbdecf5bfbd01403aU, 0xbd89543dbde4e1bbU, 0x3df7bb19bdb469a6U,
  0x3dcf5708bd01403aU, 0x3dda1c61bda9a44cU, 0xbe0298e53d623064U, 0x3de230643aac55a2U,
  0x3c2c55a2bdecf5bfU, 0xbe0aace93ddf7f0fU, 0x3d5ccdb83b2c55a2U, 0x3d89543dbd679312U,
  0xbc576b0bbbd76b0bU, 0x3d9168413d01403aU, 0x3dfd1dc63ce23064U, 0xbdfd1dc6bd2c55a2U,
  0xbde4e1bb3d8eb6ebU, 0x3d9419973c6cf5bfU, 0xbdf7bb193ce23064U, 0xbd116841bdac55a2U,
  0xbdefa716bd77bb19U, 0xbdc9f45a3df509c2U, 0xbd219048bd86a2e7U, 0x3db469a63d86a2e7U,
  0x3c81403aU, 0x3da4419f3db469a6U, 0xbd5ccdb8bd5ccdb8U, 0x3d06a2e7bd26f2f5U,
  0xbd2d4018be4a201bU, 0xbe01f0113d6f4021U, 0x3e20e016be56801dU, 0x3d3580183e358018U,
  0xbe1ed0163e2b3017U, 0x3deb2020bcc6001aU, 0xbd98a0143e3dc01aU, 0x3d5ec01ebe6f4021U,
  0x3e56801d3d040012U, 0x3e0c40133d8c4013U, 0xbdeb20203dbdc01aU, 0x3e2710163e316018U,
  0xbdc1e01b3d4e401cU, 0x3e106013bd46001aU, 0x3e0c4013bbc6001aU, 0xbe82f812be379019U,
  0x3e0820123db9a019U, 0xbdbdc01a3c948014U, 0xbe250016be01f011U, 0x3e169015bdf78021U,
  0xbdf36020be082012U, 0xbdeb2020bc46001aU, 0x3e62e01ebe271016U, 0x3dad4018bd0c4013U,
  0x3e52601cbe4c301cU, 0x3e64f01fbe58901dU, 0x3cd6801d3e62e01eU, 0x3e0e5013be0a3012U,
  0x3e1270143e0e5013U, 0x3d840012be48101bU, 0x3e2b3017bd778021U, 0x3e082012be41e01bU,
  0xbd6f40213c67001fU, 0xbce7001fbd5ec01eU, 0xbd3dc01abe040012U, 0xbe50501d3de2e01eU,
  0x3dd2601c3e271016U, 0x3d67001f3e148014U, 0xbc67001f3dad4018U, 0xbcb58018bd906013U,
  0xbe4a201bbd840012U, 0xbd7780213e39a019U, 0xbe39a0193ca50016U, 0xbd906013be4c301cU,
  0x3e3580183b840012U, 0xbdef4021bc040012U, 0x3d9480143e5aa01eU, 0xbe3fd01a3e271016U,
  0xbe55491a3eba9ff7U, 0x3e02e138be1b1de5U, 0xbe7c109400000000U, 0xbd9b1de5be854db0U,
  0xbe82e1383e5efaf9U, 0xbe9ff6d4beac1529U, 0x3e7737a43d7c1094U, 0x3e4b973cbe6d85c7U,
  0x3e9644f5bc1b1de5U, 0x3e8074c2bc68acd7U, 0x3d07ba283e4b973cU, 0xbdae81a1be24cfc3U,
  0x3d41e55ebe8eff8fU, 0x3e02e138be9b1de5U, 0xbe3d0c6ebe5a220aU, 0x3e5a220a3dcb973cU,
  0xbdfc10943d41e55eU, 0x3e98b16dbd1b1de5U, 0x3e82e1383e50702bU, 0x3d41e55e3e116c06U,
  0xbe8074c2be0c9318U, 0x3e725eb5be63d3e7U, 0xbd9b1de5be07ba28U, 0xbe9ff6d4bd7c1094U,
  0x3e854db0bcc1e55eU, 0xbe02e138be1b1de5U, 0xbe3d0c6ebf19e7a9U, 0x3eb0ee19be24cfc3U,
  0x3d87ba28be9ff6d4U, 0xbea4cfc3bd916c06U, 0xbe9d8a5cbc1b1de5U, 0x3c9b1de53e0c9318U,
  0x3b9b1de5bd1b1de5U, 0x3e1644f53e82e138U, 0x3e8c93183e9b1de5U, 0xbea2634bbdcb973cU,
  0xbda4cfc3bc9b1de5U, 0x3e5a220a3e1b1de5U, 0x3d07ba28be93d87eU, 0xbeae81a13e24cfc3U,
  0xbc1b1de5bc68acd7U, 0x3dcb973cbe46be4dU, 0xbe3d0c6e3e8eff8fU, 0xbd9b1de53e55491aU,
  0x3e8074c23e116c06U, 0x3e7c1094be02e138U, 0xbd07ba283e8eff8fU, 0xbe87ba28be9644f5U,
  0x3d9371fb3dcc69a7U, 0x3e1371fb3df7f9e1U, 0xbdc5b5edbe11c50cU, 0xbdedec493dd9d11bU,
  0x3e4e1696bca0d96fU, 0xbe2e40e3bd425c11U, 0xbdcc69a7be045d99U, 0xbd9a25b53e2e40e3U,
  0x3cf14626bcfead9aU, 0x3d4fc385bc060a87U, 0x3d425c11bdd31d62U, 0xbdedec493d3ba857U,
  0xbcd6773ebe1878c7U, 0xbe39fb69bcf14626U, 0xbe0e6b2f3d63deb3U, 0x3d90181ebc9371fbU,
  0x3e39fb693d63deb3U, 0x3e24334bbbd6773eU, 0xbd56773e3dc90fcaU, 0xbdea926c3e54ca50U,
  0xbd20d96f3bd6773eU, 0xbdb19ac03dbba857U, 0xbd3ba857be490fcaU, 0xbd9a25b5be278d29U,
  0xbdd6773ebe0b1152U, 0xbda0d96fbdbba857U, 0x3e0b1152bd425c11U, 0xbd7ead9a3e4abcb9U,
  0x3e045d99be0b1152U, 0xbc9371fbbd56773eU, 0xbd1371fb3e1371fbU, 0xbe0103bb3e096464U,
  0x3dea926c3e319ac0U, 0xbe3f02343d278d29U, 0x3e060a873dc90fcaU, 0xbde084d6bc20d96fU,
  0x3d6a926c3e11c50cU, 0x3de3deb33d63deb3U, 0x3e25e03b3dd31d62U, 0xbd0cbe41bde084d6U,
  0x3d1371fbbdf14626U, 0x3e22865d3e1d7f92U, 0xbdae40e33c3ba857U, 0xbe3ba8573c9371fbU,
  0x3e11c50c3cfead9aU, 0xbd5d2af83ad6773eU, 0x3d0cbe41bd9a25b5U, 0xbdf146263dd9d11bU,
  0xbe8f992d3e0e3b11U, 0x3e192bebbd39fe79U, 0xbe925563bdca67c0U, 0xbdb9fe793ea83717U,
  0xbe762b283e47ab89U, 0x3e966fb53e5814d1U, 0x3e86066ebd9ea459U, 0xbeadaf84be1be822U,
  0x3e808e01bda99532U, 0xbe21608f3e008e01U, 0xbe8a20c0bd7ba396U, 0xbe241cc6bd241cc6U,
  0xbe1ea459be4fe02dU, 0xbe78e75f3e762b28U, 0x3d65c1e13e241cc6U, 0x3e78e75f3e81ec1cU,
  0x3e84a8533daf0d9fU, 0x3e4fe02d3d0e3b11U, 0x3e84a853be84a853U, 0x3e9d463dbe1ea459U,
  0xbe26d8fcbe2c5168U, 0x3e0b7edabe4d23f6U, 0xbdcfe02dbda41cc6U, 0x3de5c1e13e78e75fU,
  0x3e97cdd0bdf0b2baU, 0x3e166fb5be604974U, 0xbdcfe02dbdc4ef53U, 0xbe966fb53e9ea459U,
  0xbe5ad107be299532U, 0x3da41cc6be992bebU, 0x3e5d8d3ebe97cdd0U, 0xbe762b283e7ba396U,
  0xbcf0b2ba3e0b7edaU, 0x3ea57ae0be97cdd0U, 0xbd93b37e3da41cc6U, 0xbcaf0d9f3e06066eU,
  0xbd834a383d192bebU, 0xbe0b7edabd0e3b11U, 0xbc5ad107bda41cc6U, 0x3e5814d13e84a853U,
  0x3e8e3b113d8e3b11U, 0xbd241cc6bd88c2a4U, 0xbe7ba396be992bebU, 0x3e8a20c03baf0d9fU,
  0xbdbf76e63e8a20c0U, 0xbcc4ef533e1be822U, 0xbe4a67c0be84a853U, 0x3ea41cc6be834a38U,
  0x3cdccd2dbb5ccd2dU, 0x3daff3803cdccd2dU, 0x3d0a003cbd4f005aU, 0xbdc4a6bcbdfbda07U,
  0x3da226adbdcb8d25U, 0xbdc819f1bd90e6a5U, 0xbdcf005abe10e6a5U, 0x3d4133873d7f4d3cU,
  0x3e290d163d55e6c4U, 0x3e12a040be3c06b9U, 0xbca599e1bca599e1U, 0x3c0a003c3dee0d35U,
  0xbcf866d3be0f2d0bU, 0xbca599e13dba4d1eU, 0xbdf18069bdee0d35U, 0xbdc133873d9459daU,
  0x3c413387be1b4043U, 0x3dea9a00bdbdc053U, 0x3dba4d1ebdee0d35U, 0x3cea9a003e2226adU,
  0x3d3366b43adccd2dU, 0x3d0a003cbe389384U, 0xbe27537cbd6a9a00U, 0xbe12a0403d10e6a5U,
  0xbdd959f83ba599e1U, 0x3d7180693e2599e1U, 0x3e068d07be5b1393U, 0xbe206d133e1b4043U,
  0x3d10e6a53e31ad1bU, 0xbe0846a2bde3b396U, 0xbe44a6bc3d9eb378U, 0xbd3366b4be31ad1bU,
  0xbda226adbcea9a00U, 0x3e2ac6b1bdac804bU, 0xbdaff3803d10e6a5U, 0x3d1eb3783e1459daU,
  0xbe2e39e63dfbda07U, 0xbde3b396be0a003cU, 0x3dac804b3e2ac6b1U, 0x3d63b3963e466057U,
  0x3e2599e1bdee0d35U, 0xbe1986a9bd7f4d3cU, 0xbe3c06b93d413387U, 0x3c8a003c3e2599e1U,
  0xbe42ed223adccd2dU, 0xbc8a003c3ba599e1U, 0xbd6a9a003d9b4043U, 0x3e542d2abd97cd0fU,
  0x3e3160793d6c80a2U, 0xbcb5eccbbc918a3cU, 0x3dc81e133ca3bb83U, 0xbd7599463d35eccbU,
  0xbd6c80a23d887198U, 0x3dccaa653e4ef08dU, 0xbc918a3cbe2601adU, 0xbd6367febc35eccbU,
  0xbcb5eccb3d6c80a2U, 0x3c918a3cbd887198U, 0x3e1aa2e0bbda4f5aU, 0x3dfa25973e1ce909U,
  0x3dfa2597bdfeb1e9U, 0xbe13d0653dd5c309U, 0x3e13d065bcda4f5aU, 0xbe2cd427be019f1eU,
  0xbd2cd427bdb16079U, 0x3d887198bd481e13U, 0x3e0ab7c2bdda4f5aU, 0x3e2847d53c118a3cU,
  0x3df59946bdfeb1e9U, 0xbcc81e13be906728U, 0xbe33a6a2be45d7eaU, 0x3d8871983e414b98U,
  0x3e0cfdeabcec80a2U, 0x3e4a643cbe1aa2e0U, 0x3dba791d3e414b98U, 0x3e1f2f323e1aa2e0U,
  0x3d1aa2e03dec80a2U, 0xbcfeb1e9be1aa2e0U, 0x3bda4f5a3d481e13U, 0x3d3f056e3dd5c309U,
  0xbd481e133db5eccbU, 0x3d8871983c118a3cU, 0xbd6367febdc391c1U, 0x3e0f44143e4391c1U,
  0xbcec80a23d83e547U, 0xbd1aa2e0bd481e13U, 0xbdf10cf43cb5eccbU, 0xbdccaa65bd83e547U,
  0xbe2847d53e316079U, 0xbe481e13bdd136b7U, 0x3e13d0653d2cd427U, 0x3d6367febe13d065U,
  0x3d8cfdeabd83e547U, 0xbd5a4f5abd9aa2e0U, 0xbe5edbacbd5136b7U, 0xbdd5c3093db5eccbU,
  0xbe0d97b2be1495b4U, 0xbdab4f3c3d8bd831U, 0x3e015b2dbdc74746U, 0xbe0bd8313e0a18b1U,
  0xbc7bb859bd66be51U, 0x3cb5cc40bcb5cc40U, 0x3db5cc40bda4513aU, 0xbdbcca433d4ac648U,
  0x3dea3d533ddfc04fU, 0x3d99d4363d3cca43U, 0xbc43c845bc0bd831U, 0x3c27d03bbd7bb859U,
  0x3cedbc54bdf83958U, 0x3c7bb859be0a18b1U, 0xbd3cca433da4513aU, 0x3df83958bd58c24dU,
  0x3db24d3f3daece3eU, 0xbdcac648bd3cca43U, 0xbd84da2f3e19d436U, 0xbdaece3ebe0bd831U,
  0xbd885931be0f5732U, 0x3d9655363e031aafU, 0x3e085931bdff375aU, 0xbe2291b93e35cc40U,
  0x3dd1c44abe0699afU, 0xbe5e00cfbdaece3eU, 0xbde6be51bd74ba57U, 0xbe165536badfc04fU,
  0xbdce45493e0a18b1U, 0x3daece3ebd0bd831U, 0xbdab4f3cbdc3c845U, 0x3c43c8453dc04944U,
  0xbe1495b43e0d97b2U, 0x3de6be513d99d436U, 0x3dd5434bbd2ece3eU, 0x3dc74746bda4513aU,
  0x3dbcca433c0bd831U, 0x3d27d03b3d0bd831U, 0x3dd8c24d3b5fc04fU, 0xbd815b2dbd2ece3eU,
  0x3dfbb8593db94b41U, 0x3cb5cc403d66be51U, 0xbd19d436bdce4549U, 0xbd99d4363c0bd831U,
  0xbcb5cc40bd9d5337U, 0x3de33f503e0f5732U, 0x3e12d634be2610bbU, 0xbcdfc04fbe015b2dU,
  0xbbc78116bda5a8e7U, 0x3db94102bd6eb14cU, 0xbc394102bd9930d5U, 0xbd9930d5bdbcd107U,
  0x3b64013ebdd5c12aU, 0x3dacc8f1bd679142U, 0xbd4b111b3d8e80c7U, 0xbd6b2148bd0040b3U,
  0x3ceb21483dccd91dU, 0xbc8760bdbc0040b3U, 0x3c724152bd2e90f3U, 0x3cb941023bc78116U,
  0x3d4b111b3c55c12aU, 0xbd93d8cebdcb111bU, 0xbc724152bdd23125U, 0xbd8af0c23cd5c12aU,
  0x3d3cd107bdab00eeU, 0x3de2393bbcdce134U, 0xbc724152bc8e80c7U, 0x3d3cd1073c478116U,
  0xbd4ea120bd2050dfU, 0xbc55c12a3dd3f927U, 0xbd1930d53d79615cU, 0xbd3220f83cb94102U,
  0x3c7241523c724152U, 0xbc1cc0dbbd394102U, 0xbcb941023d9af8d8U, 0x3dacc8f1bda3e0e5U,
  0xbdb779003c0e80c7U, 0x3b64013ebd9210cbU, 0xbd8e80c7bde2393bU, 0xbdc2290f3d8208b5U,
  0xbd9930d5bd9930d5U, 0x3d4b111bbc2b00eeU, 0x3d79615c3c394102U, 0xbb64013e3d0af0c2U,
  0x3da5a8e73d9210cbU, 0x3c2b00ee3db77900U, 0xbdb941023ceb2148U, 0x3d6791423d93d8ceU,
  0xbd6791423d2b00eeU, 0x3da050dfbc55c12aU, 0x3c0040b3bb2b00eeU, 0x3da050dfbca3e0e5U,
  0xbcb941023d523125U, 0x3d2050dfbd4b111bU, 0xbd0040b3bbab00eeU, 0xbdc2290fbd2b00eeU,
  0xbdb08c713bcfb448U, 0x3d20f885bdd77e3fU, 0xbdcfb448bd992e8fU, 0x3d54e597bddf4834U,
  0xbd0c334bbbf93ebeU, 0xbd9695e83dbd87b6U, 0xbdcd1ba23e0c334bU, 0xbdd24cf13c916499U,
  0xbde1e0dcbc647983U, 0xbdc0205d3d8ecbf2U, 0xbddcaf8e3c3aef0fU, 0x3bf93ebe3dd24cf1U,
  0x3d1164993ba629d4U, 0xbd93fd41be12b0edU, 0xbe24dd813d9bc737U, 0x3c2629d43d8c334bU,
  0x3ddf4834bd308c71U, 0xbcb08c713da629d4U, 0x3d0c334bbd35bdc0U, 0xbd3aef0fbdd77e3fU,
  0xbdf6a6173d0c334bU, 0xbd9bc737bd40205dU, 0xbd308c713e01d0adU, 0xbda3912dbd0701fcU,
  0xbd3aef0f3d2629d4U, 0x3d1164993d647983U, 0xbd0701fc3d916499U, 0x3c2629d43d7e700cU,
  0x3dcd1ba23de47983U, 0xbdbd87b6bdbd87b6U, 0xbd740d6f3dc0205dU, 0xbd35bdc03d4fb448U,
  0xbd93fd413c793ebeU, 0xbce479833c4fb448U, 0xbdf6a6173d81d0adU, 0xbd2629d43aa629d4U,
  0x3da3912dbc8701fcU, 0xbdda16e63dc7ea53U, 0x3d40205d3db32519U, 0x3dc0205d3d4551acU,
  0xbde7122b3dcd1ba2U, 0x3d308c71bd308c71U, 0xbe2244d93e101846U, 0xbc1164993db08c71U,
  0x3d916499bb2629d4U, 0xbe1018463cc551acU, 0x3dab5b233dfbd766U, 0xbd992e8f3e084e50U,
  0xbe88e2e83e120319U, 0x3d3dd0d43e24437cU, 0x3ec1774d3eb8571cU, 0x3eb4b0a2bc920319U,
  0x3ce99e8ebe7bdef1U, 0xbeca977fbccc6abcU, 0x3e070faa3d2f36eaU, 0xbe451dc83e6d4509U,
  0xbdf0eb82be88e2e8U, 0xbe070faa3e5b04a6U, 0x3e15a9933ea9bd34U, 0xbda7e9f6be5eab1fU,
  0xbe53b7b0beca977fU, 0xbda7e9f6be9ec9c5U, 0xbde99e8ebdf83877U, 0x3e9ec9c53e9cf688U,
  0xbce99e8ebdb683dfU, 0x3e93d656be9b234aU, 0xbd2f36ea3e48c443U, 0xbce99e8e3e209d02U,
  0x3e19500dbee7cb51U, 0xbe2b9071be870faaU, 0xbe41774d3e9ec9c5U, 0x3ebbfd97be6d4509U,
  0xbdbdd0d43e32dd65U, 0xbebfa410bec34a8bU, 0x3e5b04a6be575e2bU, 0x3e3a2a59bd99500dU,
  0x3e19500dbea9bd34U, 0xbead63adbe93d656U, 0x3ea2703ebebbfd97U, 0xbe902fdbbe699e8eU,
  0x3d4c6abcbe88e2e8U, 0xbe5011373e920319U, 0xbe070faabdbdd0d4U, 0xbe7f856c3e699e8eU,
  0xbeb10a28bd99500dU, 0x3e99500d3e5eab1fU, 0xbccc6abcbe783877U, 0x3e7491fd3e62519aU,
  0x3e977cd1be5eab1fU, 0xbd0369303d836930U, 0xbde99e8e3e32dd65U, 0x3ea616b9be9b234aU,
  0x3e24437cbd836930U, 0x3dbdd0d43d836930U, 0x3e836930bdcc6abcU, 0xbe0ab6253e99500dU,
  0xbdd209783c8dff32U, 0xbddddebd3e289f0bU, 0xbd7293f4bd54fec9U, 0xbe0229ed3df293f4U,
  0xbceca951bb8dff32U, 0xbd19d475bd37699fU, 0x3e0699e6bcb17efdU, 0x3dab945bbd13e9d3U,
  0x3cb17efd3dfb73e7U, 0xbc8229edbe1859cdU, 0xbd317efd3d93e9d3U, 0x3d851f3ebd13e9d3U,
  0x3d13e9d3bde6beb0U, 0xbdf87e963dcc1ed7U, 0xbe0f79d93e10f482U, 0xbd7293f43d0229edU,
  0xbe0dff323dcf1428U, 0x3e2b945b3dc92985U, 0xbabd5441be1fbf17U, 0xbdfe6939bdcc1ed7U,
  0x3c54fec9be00af44U, 0xbd5ae96cbe1fbf17U, 0xbd66beb0bd317efdU, 0xbe0dff323d9fbf17U,
  0xbcc92985bd5ae96cU, 0xbe0699e63d492985U, 0xbe300455bdd4fec9U, 0x3d60d40dbe300455U,
  0x3d1fbf173e098f38U, 0x3da89f0bbd6ca951U, 0xbddddebd3c25a9b9U, 0xbd4929853d93e9d3U,
  0x3c6ca951bd8dff32U, 0xbdef9ea23dbd5441U, 0x3d851f3ebb8dff32U, 0xbb8dff323cb17efdU,
  0x3deca951be3bd999U, 0x3e2d0f043d19d475U, 0xbd8b09e03df293f4U, 0xbdeca951bdf293f4U,
  0xbd851f3e3e03a495U, 0xbe22b468bd99d475U, 0x3db17efd3bbd5441U, 0xbe2d0f043e098f38U,
  0x3d88148f3e300455U, 0x3dc049933d08148fU, 0xbe0229edbdfb73e7U, 0xbd60d40d3de0d40dU,
  0x3de3e0973da0b6a6U, 0x3ddcae623d0653e3U, 0x3d83edd03d617a85U, 0xbe185168bd0fec2aU,
  0x3bbfe58c3dcbe3e6U, 0xbd7e435abc998471U, 0xbdbb19693deb12ccU, 0xbd9e50943d94b84dU,
  0xbdd7e23e3c998471U, 0x3b6646a93d0b2006U, 0xbcb64d45bd0fec2aU, 0x3cdcae62bdaf1b10U,
  0xbd8fec2a3d971e5fU, 0xbda0b6a63d2cb4feU, 0x3dd7e23e3dcbe3e6U, 0x3d92523b3c3fe58cU,
  0x3dc97dd43cbfe58cU, 0xbd5cae62bdbfe58cU, 0x3c53161b3be646a9U, 0xbd6b12ccbda0b6a6U,
  0x3c7977373daa4eedU, 0xbd7977373c998471U, 0xbda7e8dbbc53161bU, 0x3db3e733bdaa4eedU,
  0xbc0653e3bd4e49f8U, 0x3d94b84dbe03edd0U, 0xbcacb4febd0653e3U, 0xbdbd7f7abda31cb7U,
  0xbd198471be0653e3U, 0xbd0187bfU, 0x3defdef03d74ab13U, 0xbd83edd0bd27e8dbU,
  0x3da7e8db3d8b2006U, 0x3d53161bbd6b12ccU, 0x3d0187bf3db8b357U, 0x3cacb4fe3d9bea82U,
  0x3d231cb7bd497dd4U, 0xbcd3161bbd0b2006U, 0x3d9bea82bc2cb4feU, 0x3d88b9f4bded78deU,
  0xbdd3161b3d4e49f8U, 0x3d3b19693c0653e3U, 0xbc2cb4fe3c2cb4feU, 0xbdc24b9fbb6646a9U,
  0xbc6646a9bdd7e23eU, 0x3d14b84d3d53161bU, 0xbd971e5f3dd3161bU, 0xbd57e23ebc198471U,
  0x3dbe626ebd1de13cU, 0xbdc3072cbdf61b55U, 0xbd682d1cbb1497c0U, 0xbd993c7e3e16ea1fU,
  0x3e272ab8bda72ab8U, 0xbdbe626ebd39bdb0U, 0xbe1b8eddbe045727U, 0xbde82d1cbdb07434U,
  0xbdbe626e3e5347c5U, 0x3e5c9141bd9de13cU, 0xbd8204c83d43072cU, 0x3d682d1c3cdee3a0U,
  0x3cf17698bd86a986U, 0xbe6cd1d9bc39bdb0U, 0x3d43072c3d682d1cU, 0xbdc7abea3e1de13cU,
  0xbe3074343da285faU, 0x3c5ee3a03da72ab8U, 0x3d0b4e44be0204c8U, 0x3ccc50a83cb9bdb0U,
  0xbe20339b3c1497c0U, 0x3bdee3a03cdee3a0U, 0x3d0204c83e0b4e44U, 0xbe5347c5be297d16U,
  0x3d86a986be50f566U, 0x3e376b51be16ea1fU, 0xbdabcf763de3885dU, 0xbe6135ff3d5ee3a0U,
  0x3e0b4e443e1497c0U, 0x3e24d859be3c100eU, 0x3db9bdb03d4c50a8U, 0x3d86a986be45598aU,
  0x3e43072cbe045727U, 0x3c39bdb03e5ee3a0U, 0x3e0b4e44be24d859U, 0xbe1245613dc7abeaU,
  0x3d1de13cbe297d16U, 0x3d0b4e443e3518f2U, 0x3df61b55bbdee3a0U, 0x3dd0f5663e6f2439U,
  0x3c5ee3a03e43072cU, 0x3e272ab83e1de13cU, 0xbd9de13cbdcc50a8U, 0x3cb9bdb03d4c50a8U,
  0x3ccc50a83e5ee3a0U, 0x3e936e903d682d1cU, 0x3d43072cbe47abeaU, 0xbe16ea1f3d86a986U,
  0x3d44b6d0be3f71ebU, 0x3e073db03da89cb3U, 0xbda89cb33cc4b6d0U, 0x3e5808c53e1a8fa4U,
  0x3d59ca683cfceb0dU, 0x3dd9ca68be41338dU, 0xbe0ac0f33d1a8fa4U, 0xbd59ca683c9a8fa4U,
  0xbd9e12e83c289cb3U, 0x3d057c0dbbe0d0efU, 0xbd3db0493ae0d0efU, 0x3db3267e3de45432U,
  0x3deb5aba3e11c77bU, 0x3dd64723be5f0f4dU, 0xbdf5e485be1fd489U, 0xbd67d776be5808c5U,
  0x3d9e12e8bd88ff52U, 0x3d88ff523d59ca68U, 0xbe154abebe44b6d0U, 0xbdbdb0493d3db049U,
  0x3d9a8fa43d60d0efU, 0x3e0e44373dac1ff7U, 0x3d75e4853e08ff52U, 0xbe2de199bd9a8fa4U,
  0xbe057c0dbde0d0efU, 0x3ceeddfe3db3267eU, 0xbdcf409cbe2de199U, 0x3d6eddfe3e3beea8U,
  0x3ceeddfebca89cb3U, 0xbd6eddfe3cd2c3e0U, 0x3e154abe3e26db12U, 0xbde45432be3164dcU,
  0xbe44b6d03ddd4dabU, 0xbcfceb0d3be0d0efU, 0xbdafa33abd75e485U, 0x3e42f52f3e2357cdU,
  0xbd75e485be42f52fU, 0xbd0c82953e386b64U, 0xbe154abebd13891dU, 0x3da1962bbdeeddfeU,
  0xbdcf409c3e1c5146U, 0x3d67d7763d21962bU, 0xbc8c8295bceeddfeU, 0x3e49fbb7be1c5146U,
  0x3c8c8295be08ff52U, 0xbba89cb33dcf409cU, 0x3e289cb3be3f71ebU, 0x3da51970bda51970U,
  0x3e11842f3d7f4ab6U, 0xbdeade55bdab0ba8U, 0x3c0ef6a33ded6be1U, 0x3dd3e469bbf51485U,
  0xbdcec9503d09db8bU, 0x3dba5cf0bce0a824U, 0x3cf514853dd156dcU, 0xbd420594bc37cf64U,
  0xbbcc3bc53d420594U, 0xbdab0ba83d9bba60U, 0xbba363043d192cd3U, 0x3db2b44c3db2b44cU,
  0xbc37cf64bd2d9934U, 0xbd3cea7cbdff4ab6U, 0x3de850c93cd671f5U, 0x3c4c3bc53d32b44cU,
  0x3dcc3bc53dc9ae39U, 0x3c37cf64bd8c6917U, 0xbd287e1cbda87e1cU, 0x3d287e1cbd4c3bc5U,
  0xbce0a824bce0a824U, 0xbdf514853db7cf64U, 0x3ce0a8243dab0ba8U, 0x3cc20594bcd671f5U,
  0x3c4c3bc53d192cd3U, 0x3b2363043d1e47ebU, 0x3d969f47bdf7a211U, 0xbcff4ab6be00ec21U,
  0x3dbf7808bdad9934U, 0x3ca363043dbcea7cU, 0xbdab0ba8bc60a824U, 0x3dcc3bc53ce0a824U,
  0xbc992cd33d287e1cU, 0xbd89db8b3db7cf64U, 0x3db2b44cbde850c9U, 0x3dbf78083c4c3bc5U,
  0xbcad99343c4c3bc5U, 0x3da87e1cbd84c073U, 0x3df286fa3da5f08fU, 0xbd5156dc3d5156dcU,
  0xbcad9934bd09db8bU, 0xbde335b13d287e1cU, 0x3b7514853cc20594U, 0xbe04c073bdc49320U,
  0x3dc9ae393e04c073U, 0x3dab0ba8baa36304U, 0xbe221c3e3db7cf64U, 0x3dba5cf0bdeade55U,
  0x3e14b6d2be2395e8U, 0xbddc18d13d0ec3fdU, 0x3e2c8228be356e67U, 0x3de20ba7U,
  0x3d79d6fbbc3e5aa7U, 0xbd5625fcbe1da312U, 0x3e14b6d2bddc18d1U, 0xbdd03326bcedf151U,
  0xbb3e5aa73d3274fcU, 0x3c0ec3fdbe05d7bdU, 0xbe444d7cbdb867d2U, 0x3d79d6fb3dca4051U,
  0x3dca4051bc8ec3fdU, 0x3d268f52be14b6d2U, 0x3d3274fcbe1aa9a7U, 0x3e1da312be11bd67U,
  0x3e4154123d02de53U, 0xbda09c7d3d79d6fbU, 0x3d3274fc3d6df151U, 0xbe268f52be02de53U,
  0x3e1da312be2c8228U, 0x3e209c7d3e3867d2U, 0x3d268f523e4746e6U, 0x3d94b6d23db867d2U,
  0xbda68f52bddc18d1U, 0xbe503326be2988bdU, 0xbdb867d2bebcddf1U, 0x3e17b03d3d9aa9a7U,
  0xbdf3e426bd3e5aa7U, 0x3c0ec3fdbca68f52U, 0xbdedf151bdca4051U, 0xbd3274fc3b3e5aa7U,
  0xbe591f66bdedf151U, 0x3e1da312bc3e5aa7U, 0xbc0ec3fd3e2395e8U, 0x3b3e5aa7be4746e6U,
  0xbdbe5aa73d9aa9a7U, 0xbd02de533e209c7dU, 0x3e1da312be3274fcU, 0x3e2f7b913d0ec3fdU,
  0xbe356e67be4746e6U, 0xbd5625fcbdf9d6fbU, 0xbe4d39bcbe0ec3fdU, 0x3dc44d7c3dbe5aa7U,
  0x3cbe5aa7bddc18d1U, 0xbde20ba7be3e5aa7U, 0xbe1da3123e268f52U, 0xbe0ec3fdbd3274fcU,
  0xbe008b423d6b4d03U, 0xbd142702be8a5922U, 0x3d1cde023d3fba03U, 0x3e3fba03bd871482U,
  0x3d512802bb8b7002U, 0xbdb2a782be82b902U, 0x3d7cbb033d59df03U, 0x3d740403bdd58383U,
  0x3da59503bdf40403U, 0xbcd128023da13982U, 0x3d871482be66f183U, 0xbe512802bd512802U,
  0x3defa8843de29603U, 0xbb8b70023bd12802U, 0xbe094242be370303U, 0xbdb2a7823dbb5e83U,
  0xbda139823c740403U, 0x3c8b7002U, 0xbcd12802be259503U, 0x3ce296033d259503U,
  0xbdf85f84be32a782U, 0xbc2e4c03bd871482U, 0x3db70303bc740403U, 0x3dfcbb03bda59503U,
  0xbdc41583bdb70303U, 0x3df404033dd9df03U, 0xbcbfba03bd82b902U, 0x3df85f84bb8b7002U,
  0xbd3fba033c2e4c03U, 0x3e071482bdf85f84U, 0xbd5128023d142702U, 0x3e0714823d370303U,
  0x3e1f0bc2bd1cde02U, 0xbdd9df03bd1cde02U, 0x3e1ab0433d259503U, 0xbdeb4d033d629603U,
  0x3bd128023e1cde02U, 0x3dc871033e04e6c2U, 0xbdbb5e83be32a782U, 0xbdbfba03be1f0bc2U,
  0x3c9cde023d487103U, 0x3e1882823e4ccc83U, 0xbe188282bcf40403U, 0x3e02b902bd740403U,
  0x3dc871033d0b7002U, 0xbd6b4d03bdd12802U, 0x3e32a7823df85f84U, 0x3d5128023d370303U,
  0x3e82434c3e055d47U, 0x3e1b132a3e6582c4U, 0x3e80b64ebdc04af7U, 0xbe467eeebe855d47U,
  0xbdc67eeebd467eeeU, 0xbe0877443d8eab3bU, 0xbe7504ad3df81ea9U, 0x3d6bb6bbbd2daf10U,
  0x3dd91ad33dc67eeeU, 0x3d5f4eccbda14721U, 0xbe7504adbdd2e6ddU, 0x3e7b38a6bdb3e308U,
  0x3cdf4ecc3e6582c4U, 0xbd887744be6bb6bbU, 0xbebebdf83d467eeeU, 0xbe02434cbc94df32U,
  0xbe91c536bc467eeeU, 0xbd8eab3bbe214721U, 0x3e24611eU, 0xbde582c4be82434cU,
  0x3df81ea93e7504adU, 0x3e8d1e3d3e903839U, 0xbe7504adbdccb2e5U, 0x3e1e2d25U,
  0xbd2daf103d781ea9U, 0xbe4cb2e5be055d47U, 0xbdebb6bbbd2daf10U, 0x3ec4f1f03e14df32U,
  0x3e3d30fbbc94df32U, 0x3e36fd03be277b19U, 0xbe71eab1bd14df32U, 0x3c781ea9bdd2e6ddU,
  0x3e087744be689cbeU, 0x3e0eab3bbe591ad3U, 0xbe689cbebcc67eeeU, 0xbe36fd03be02434cU,
  0xbdccb2e5bd781ea9U, 0x3e5f4ecc3e8a0442U, 0xbe887744be71eab1U, 0x3d0877443dd91ad3U,
  0x3e855d47be4cb2e5U, 0xbd3a16ff3c14df32U, 0xbe781ea93d8eab3bU, 0x3dd91ad33b467eeeU,
  0x3e0eab3bbd14df32U, 0xbe6bb6bb3e404af7U, 0xbe17f92fbd2daf10U, 0x3dba16ffbe8b9140U,
  0x3d850f553d961e6dU, 0xbe1ea5f93e050f55U, 0x3dbba608bd9cf144U, 0xbd5387f73dc278deU,
  0x3b5a5acd3d5a5acdU, 0x3de12da3be11004cU, 0xbe0a2d763e050f55U, 0x3dae005bbe2578cfU,
  0xbe1987d93dddc438U, 0xbb5a5acdbdddc438U, 0xbe17d3233dda5acdU, 0x3daa96f0bada5acdU,
  0xbc23c41abd01a5eaU, 0x3c23c41a3deed350U, 0x3db83c9d3de4970eU, 0x3e1469b73d3169c7U,
  0xbe161e6d3c5a5acdU, 0xbe205aaf3c75a627U, 0xbd383c9dbe220f64U, 0x3e553cac3c0878c0U,
  0x3dc94bb5bd6ed350U, 0x3d68007abd0878c0U, 0x3d45e24abd8f4b96U, 0x3dd387f7bdbba608U,
  0xbe0a2d763e1987d9U, 0xbe23c41abe01a5eaU, 0xbb5a5acdbd7c78fdU, 0xbe11004cbdd387f7U,
  0xbe2e005bbc8878c0U, 0x3d01a5ea3c23c41aU, 0x3c8878c0bd5a5acdU, 0xbd9cf1443e1987d9U,
  0x3dbba6083dddc438U, 0xbe17d323bd850f55U, 0x3d383c9d3c23c41aU, 0xbdeb69e53da05aafU,
  0xbe2a96f0bdb169c7U, 0xbd3f0f733d7c78fdU, 0x3e2e005b3e1987d9U, 0xbada5acd3dd01e8cU,
  0x3ba3c41abd8be22bU, 0x3d8be22bbe0be22bU, 0xbe0f4b96be58a617U, 0x3e0be22b3bda5acdU,
  0x3dc5e24abdc94bb5U, 0xbd3f0f733de8007aU, 0xbe28e23abdb169c7U, 0xbe1987d9bc75a627U,
  0x3df7d674bd842e1bU, 0x3e4855e1bd56caedU, 0x3e2d7c83bc042e1bU, 0x3d2d7c833da95b14U,
  0xbe10926e3d8c70fdU, 0xbdbe02483e39e0d7U, 0xbe611e86bd56caedU, 0x3c464529be8325bfU,
  0x3e2539a3bc842e1bU, 0xbd6750b03cf7d674U, 0xbe0c70fdbd884f8cU, 0xbe39e0d7be1cf6c0U,
  0xbdb5bf663e063ed4U, 0xbdc223b9be2328eaU, 0xbd842e1bbe10926eU, 0xbd884f8cbd2d7c83U,
  0x3e0c70fdbe71a44aU, 0xbd3e02483e211832U, 0xbce750b0be2f8d3cU, 0xbe063ed4bd56caedU,
  0x3d2d7c833d35bf66U, 0xbc6750b0be71a44aU, 0x3ddaec5e3dc223b9U, 0xbddf0dcfbd90926eU,
  0x3deb72213e000caaU, 0x3e021d633e12a326U, 0xbd9cf6c0bd98d54fU, 0xbe33aead3d0c70fdU,
  0xbe4a669a3e10926eU, 0xbdd6caed3d842e1bU, 0x3e5098c3be2539a3U, 0x3e37d01e3e18d54fU,
  0xbe274a5b3e2328eaU, 0x3db5bf66be4a669aU, 0xbd94b3dfbd4e880bU, 0x3dc64529be14b3dfU,
  0xbd1cf6c03de32f3fU, 0x3dce880bbd1cf6c0U, 0xbe4855e1be5f0dcfU, 0xbdb5bf66be000caaU,
  0xbe2328eabe2b6bccU, 0x3e0a6045be4a669aU, 0xbc842e1b3d884f8cU, 0xbdbe02483da95b14U,
  0x3e4a669a3e5f0dcfU, 0x3c4645293db5bf66U, 0xbe319df43d77d674U, 0x3e319df43e084f8cU,
  0xbdeb271d3bffb33bU, 0xbd846a88bdb8ed0dU, 0x3c48e840bda8f1d9U, 0xbd2460f0bd9fd005U,
  0x3d520a15bcc8e840U, 0x3cbfc66d3dab3a4fU, 0xbda460f0bda6a964U, 0x3cdb2bea3c921d46U,
  0xbd5fbcd43c88fb72U, 0xbdafcb393d88fb72U, 0xbe046a88bd8b43e8U, 0x3d769167bdd8e375U,
  0x3c5b2beabdc20ee2U, 0x3da460f03db8ed0dU, 0xbde44dbebda460f0U, 0xbd7fb33b3d8d8c5cU,
  0x3dbfc66d3d121d46U, 0x3dbfc66d3bffb33bU, 0xbdefb8083cb6a498U, 0xbde20548be0fd4d1U,
  0x3da460f03d5b2beaU, 0xbdc20ee23c2460f0U, 0xbd5fbcd43d98f6a5U, 0x3d96ae313d36a498U,
  0xbd2460f0bc921d46U, 0xbcb6a4983d8d8c5cU, 0x3d8b43e8bd86b2fdU, 0xbda6a964bce44dbeU,
  0xbdafcb39bdd20a15U, 0x3dafcb39be10f90cU, 0xbc9b3f1bbd8b43e8U, 0xbd520a153c121d46U,
  0xbddd745fbdcb30b5U, 0x3d16ae3100000000U, 0x3d569b00bd2d82c4U, 0xbd846a88bd68dea8U,
  0xbdbb35823dbb3582U, 0xbd121d46bca460f0U, 0x3d1b3f1b3d9b3f1bU, 0xbd28f1d93d72007dU,
  0xbb121d46bcffb33bU, 0xbda6a9643df448f2U, 0xbb5b2bea3ded6f92U, 0xbda460f0bdbd7df8U,
  0x3dbd7df8bd28f1d9U, 0xbe00fdd8bdcb30b5U, 0xbd98f6a5bd3fc66dU, 0xbde205483d769167U,
  0xbd08b74f3d6938b5U, 0x3c4102ca3da0d7a9U, 0xbe0aba013cf1437dU, 0xbd88b74f3e1ed4f6U,
  0xbc4102ca3d94c77cU, 0xbd6938b53e22da5bU, 0x3df1437d3e1cd244U, 0x3cd1185b3e4f15a9U,
  0xbe6f40ca3ce12decU, 0x3ce12dec3e51185bU, 0xbe51185bbe6b3b66U, 0x3e6b3b66bdc5082eU,
  0xbe7d53a93dcd12f7U, 0xbe28e2713e30ed3aU, 0xbe18cce03c00ac87U, 0x3df1437d3dc90d93U,
  0xbe5720713d84b1ebU, 0xbd18cce0be4102caU, 0x3db4f29dbe24dd0cU, 0x3e32efebbd10c218U,
  0x3e02af39bdb0ed3aU, 0xbe4102cabe612decU, 0x3cb0ed3a3dd92323U, 0x3c612dec3e653350U,
  0xbe63309f3e32efebU, 0xbd90c218bda0d7a9U, 0x3b00ac87be3f0018U, 0x3e4d12f73e0aba01U,
  0x3e26dfbfbd84b1ebU, 0x3de533503e38f802U, 0x3e7d53a9be612decU, 0xbe612decbe6d3e19U,
  0x3de53350bbc102caU, 0xbe2eea87bdf548e0U, 0x3d84b1ebbce12decU, 0x3e14c77cbe7f565cU,
  0x3db4f29dbe22da5bU, 0x3c612dec3dbcfd65U, 0xbe02af393e653350U, 0xbd612decbe1cd244U,
  0x3cf1437d3dd51dc0U, 0x3e6d3e193e71437dU, 0x3e00ac87be51185bU, 0xbe3afab4be26dfbfU,
  0x3d4102cabd38f802U, 0x3e26dfbfbe1acf92U, 0x3da8e271bdf94e45U, 0x3e45082ebcc102caU,
  0xbe41bb9000000000U, 0x3db789453ca324afU, 0xbdf4b7083bc3c5a0U, 0xbe2942dd3c0283c0U,
  0x3e4df7eabdcbeddcU, 0xbdbb9d643e7ee952U, 0xbdc3c5a0be0cb60bU, 0x3dcbeddc00000000U,
  0xbd64668f3dc7d9bdU, 0xbc92d4383d337527U, 0x3df4b7083e337527U, 0x3c0283c03ce4668fU,
  0x3b0283c0bcb37527U, 0x3e12d4383dcbeddcU, 0x3d74b708be5c3e53U, 0xbe0ec019be0697deU,
  0x3e0283c0be66709fU, 0x3e4beddcbdaf610aU, 0x3cd41617be3b9d64U, 0x3db789453d8aabfbU,
  0xbd0aabfb3d8283c0U, 0xbe5c3e53bd43c5a0U, 0xbda324afbe520c09U, 0x3e5a34443e2f610aU,
  0xbe6c8ecc3e5a3444U, 0x3e7ad5353dc3c5a0U, 0x3e5a34443de87aadU, 0x3d3b9d64be08a1edU,
  0x3d0283c0be048dcfU, 0x3d9afc743dd41617U, 0xbde052723e43c5a0U, 0x3e78cb25be43c5a0U,
  0x3e0283c0be817eb8U, 0xbe582a36bdaf610aU, 0xbdd41617be3b9d64U, 0xbd96e856bd8697deU,
  0xbe18f2643e2324afU, 0xbe0697de3cb37527U, 0x3e6c8eccbc43c5a0U, 0xbd0283c03d5c3e53U,
  0x3d8aabfb3ca324afU, 0x3e43c5a0bd3b9d64U, 0xbdb789453e76c116U, 0x3e687aadbe5a3444U,
  0x3c0283c03d2324afU, 0xbe252ebfbdbfb181U, 0x3df8cb253e2942ddU, 0x3e3da773bdf0a2e9U,
  0x3e0554c5bddf90baU, 0xbe0806523d9c39f4U, 0x3de24247bd2c6342U, 0xbc41efa9bdefba08U,
  0x3d9eeb81bdb477e9U, 0x3d77ceaf3d5218f7U, 0xbda70028bdd77c11U, 0x3d77ceafbaac6342U,
  0x3d4cb5ddbdea56eeU, 0xbc014a71bdccb5ddU, 0x3d41efa93d86ad8bU, 0x3d0c10a53dd218f7U,
  0x3dbc8c90bddf90baU, 0xbdfd31c9bd577c11U, 0xbd5cdf2dbdac6342U, 0xbbd77c11be2b0a7bU,
  0xbda9b1b53dd218f7U, 0x3cc1efa93da70028U, 0xbd8c10a53b814a71U, 0x3d9173bf3ce24247U,
  0xbc014a713cb72976U, 0x3d16d6da3c96d6daU, 0xbdf7ceafbdf51d22U, 0x3d895f18bda19d0eU,
  0xbd9c39f4bddf90baU, 0x3ddcdf2dbdb477e9U, 0xbd6d087b3dfd31c9U, 0x3de4f3d4bd06ad8bU,
  0x3b2c6342bded087bU, 0x3da700283b814a71U, 0xbdc752c43df26b95U, 0x3e0d696c3c96d6daU,
  0x3dea56eebd1173bfU, 0xbdbc8c903cc1efa9U, 0x3dccb5ddbcf7ceafU, 0x3d9eeb813dca0450U,
  0x3e014a71bd998867U, 0xbd83fbfebd9173bfU, 0x3d5218f73c577c11U, 0x3d2c63423c014a71U,
  0xbddf90babb814a71U, 0xbd9eeb81be1eeb81U, 0xbd5218f7bdc1efa9U, 0x3d5cdf2d3e080652U,
  0xbd9173bfbd77ceafU, 0x3e0d696cbd96d6daU, 0x3cac6342bdffe356U, 0x3ce24247bd5cdf2dU,
  0xbe6eb484be8af8e1U, 0xbdeb6f6a3ea37f26U, 0xbd966abc3e40ed13U, 0xbd0fe0883e918315U,
  0xbea521b3be30938fU, 0xbd8fe088be203a0cU, 0x3e682a50be9e977fU, 0xbe9cf4f2bea37f26U,
  0x3e0fe0883dd7d0cbU, 0xbe44322dbd9cf4f2U, 0x3e5e5b013c82cc1eU, 0x3eb71dc4bd0fe088U,
  0x3e64e535bd2a095bU, 0xbd02cc1e3dd7d0cbU, 0x3db0938fbcd14697U, 0xbea37f26be02cc1eU,
  0x3ea1dc993e8c9b6eU, 0x3e2d4e75be6b6f6aU, 0x3b5146973e2a095bU, 0x3eaef102bea37f26U,
  0xbe7883d43e02cc1eU, 0xbe514697be9325a2U, 0x3d7883d400000000U, 0x3bd146973deb6f6aU,
  0xbe846eab3e1cf4f2U, 0x3e371dc4be812991U, 0x3d8fe0883e166abcU, 0x3d0fe088be5e5b01U,
  0x3deb6f6abcb71dc4U, 0x3e980d4a3e8fe088U, 0x3df1f99fbe477748U, 0xbdf1f99f3dd7d0cbU,
  0x3e203a0c3d0fe088U, 0x3d82cc1e3d966abcU, 0xbe0fe088be2d4e75U, 0xbea03a0cbe5b15e6U,
  0x3e095654be0fe088U, 0xbdeb6f6a3e2a095bU, 0xbea866cebd2a095bU, 0x3e514697bdd14697U,
  0x3dcabc63bc82cc1eU, 0x3bd146973e6b6f6aU, 0x3e4e017d3b514697U, 0xbe980d4a3e02cc1eU,
  0x3e9e977f3e8fe088U, 0x3d6b6f6a3cb71dc4U, 0xbecfa40abe4e017dU, 0x3e7bc8eebeb2361dU,
  0xbc7001b8bd9d8120U, 0xbdf281bdbdf281bdU, 0x3d25012ebd9d8120U, 0x3de381a2bd7501c0U,
  0x3d390153bd0700f8U, 0xbe14c1113df501c0U, 0x3de601a5bd48016eU, 0xbd3901533d1b011cU,
  0x3dac813cbd988117U, 0x3d91010abe05c0f5U, 0xbcf001b83d0c0101U, 0xbd8200ee3e1c411fU,
  0xbd0200eebdc5816aU, 0x3d6b01af3d8700f8U, 0xbd2f0141bdf281bdU, 0xbdcf817c00000000U,
  0x3e00c0ecbdaf0141U, 0x3dbb8158bdf281bdU, 0x3ddc01933d520181U, 0xbd2a01383d48016eU,
  0xbde1019dbe0ac0feU, 0xbd0200ee3daf0141U, 0x3d6b01afbb200125U, 0xbd8700f8bd988117U,
  0xbdb18145bd1b011cU, 0xbd9d81203da78133U, 0xbcc8016ebe0e8106U, 0x3c0c0101bcc8016eU,
  0xbde601a5bd91010aU, 0x3de381a2bd430165U, 0xbdfc81cf3e0200eeU, 0x3e1ec1233d430165U,
  0x3de881aa3dde8198U, 0x3db90153bde1019dU, 0xbcaa01383bf001b8U, 0x3d390153bd1b011cU,
  0x3cb4014a3dd9818eU, 0x3ba001253d960113U, 0x3c48016ebdaa0138U, 0xbd11010a3e0840f9U,
  0xbe0980fc3bc8016eU, 0x3db181453c200125U, 0x3d6601a5be14c111U, 0xbc0c0101bc8200eeU,
  0xbcaa01383db6814fU, 0x3bf001b8bdaa0138U, 0xbdb4014a3df501c0U, 0xbde1019dbe0480f3U,
  0x3d21d4c1bd984fc5U, 0x3cf781a13d9ab104U, 0xbd80834ebd301c3cU, 0xbd8c698a3db27d7bU,
  0x3dc7e8b33c7781a1U, 0xbdb01c3cbdd3ceeeU, 0xbd8c698abe04152dU, 0x3bbe63b6bd9d1244U,
  0xbd21d4c1be171f26U, 0x3dd16dafbd8545cdU, 0x3dadbafdbdbe63b6U, 0x3dc58774bda1d4c1U,
  0x3d80834ebd0ecac9U, 0xbd80834e3d34debaU, 0xbd6dfca4bd138d47U, 0xbcdaf2ac3d984fc5U,
  0x3cb4debabdc7e8b3U, 0xbdc58774bda1d4c1U, 0x3d4326353deb9b65U, 0x3da436013d6477a9U,
  0xbd2697403e00834eU, 0x3dab59bebd87a70cU, 0xbd4cab32bca1d4c1U, 0xbca1d4c13de93a26U,
  0x3da8f87e3df781a1U, 0xbb6477a9bdc7e8b3U, 0xbde6d8e6bc2b59beU, 0xbcab59be3b184fc5U,
  0x3d138d473de477a9U, 0x3d184fc53d00834eU, 0x3be477a9bcd16dafU, 0xbc184fc5bdeb9b65U,
  0x3df2bf23bd1d1244U, 0x3d516dafbdd3ceeeU, 0x3da43601bc516dafU, 0x3d301c3c3d5fb52aU,
  0xbd39a1383d8c698aU, 0x3d516daf3deb9b65U, 0xbd938d473d6477a9U, 0xbe0d9a29bce477a9U,
  0xbd516dafbd82e48eU, 0xbdb01c3cbdb9a138U, 0xbd47e8b33d9ab104U, 0xbc2b59be3d3e63b6U,
  0x3dd16daf3dedfca4U, 0xbd6477a9bcdaf2acU, 0xbe0d9a29bc516dafU, 0x3df05de33d82e48eU,
  0x3dc899793d207ac7U, 0x3c5ca8d2bcb48a20U, 0xbdb48a20bd489979U, 0xbda57e9dbda2fcb2U,
  0xbcd2a124bdcb1b63U, 0x3d7abfd63d7abfd6U, 0xbd0c6b6e3dbc0fe1U, 0x3d398df53de1aca7U,
  0xbd84e5ad3e1f39d1U, 0xbd52a1243b207ac7U, 0xbdf83debbd75bc01U, 0xbd70b82abaa07ac7U,
  0x3d4395a23de1aca7U, 0x3daf86493ce6b07dU, 0x3d4395a23cbe91ccU, 0xbde932693d076797U,
  0xbd5ca8d23d257e9dU, 0x3d96731abdd2a124U, 0xbdd2a1243bf0b82aU, 0x3d98f505bdd01f3aU,
  0xbaa07ac7bc207ac7U, 0xbde1aca73d57a4fbU, 0xbd0c6b6e3d93f12fU, 0xbd6bb454bda2fcb2U,
  0x3d8eed59bd96731aU, 0x3df0b82a3db48a20U, 0x3d8263c13d0263c1U, 0xbca07ac7bcfabfd6U,
  0xbd207ac7bd70b82aU, 0x3db98df53e0122ccU, 0xbdc6178d3da2fcb2U, 0xbe0122ccbc489979U,
  0xbdad045e3dc6178dU, 0x3d57a4fbbd0c6b6eU, 0x3ddca8d23cbe91ccU, 0x3cb48a20bdbc0fe1U,
  0x3d0c6b6e3dc395a2U, 0xbd0767973ce6b07dU, 0xbd57a4fb3db48a20U, 0x3b70b82a3d93f12fU,
  0x3c8c6b6e3d7fc3acU, 0x3da07ac73d489979U, 0x3d116f44bd52a124U, 0x3caa8273bcfabfd6U,
  0xbd84e5ad00000000U, 0xbd398df500000000U, 0xbdbc0fe1bd116f44U, 0xbc70b82a3b207ac7U,
  0x3d64b9863e979713U, 0xbcd235b83c7d0c89U, 0x3d9d2e3cbe2ba969U, 0x3b2be46dbd9f6e68U,
  0xbe4200e53e406658U, 0x3db917973e2f783dU, 0x3d8f0eb63d6e7e4eU, 0x3d2d8e903e0572e7U,
  0xbd2c553ebe02b700U, 0x3e82b620bdf86f49U, 0x3e3e76e93dcaed16U, 0x3e7e900e3daf6570U,
  0xbcb939d43e91d56dU, 0x3d8764a3bdbd4a48U, 0xbb8b9416bdc7f42bU, 0x3d2975be3d2bf97bU,
  0x3cd44290be544290U, 0xbdeecae2bdd44290U, 0x3e0f4687bcbf08b5U, 0xbc544290be31c48cU,
  0xbcbf08b5bdf41959U, 0xbcbf08b5be371302U, 0x3d346bc83e41aff0U, 0xbe02025fbd544290U,
  0xbe2480633e7c0f0bU, 0x3e31c48cbdd99107U, 0x3e642df4be19e375U, 0x3d7eb6473ba9cedaU,
  0x3b29cedabe31c48cU, 0xbe27279ebe44572bU, 0x3e3c6179bd84a99aU, 0xbb29cedabdb46bc8U,
  0xbda9ceda3d1494ffU, 0xbd89f811be2c7615U, 0x3e1f31ec3d697c6bU, 0xbdcef4193ca9cedaU,
  0xbd1494ffbd1f31ecU, 0xbd1f31ecbd84a99aU, 0xbdfeb6473e0750d5U, 0x3e346bc8bd1f31ecU,
  0x3e0c9f4cbd741959U, 0xbe371302bdfeb647U, 0xbdbf08b53e27279eU, 0xbd89f811bca9cedaU,
  0xbe2c76153e346bc8U, 0xbd346bc83e248063U, 0xbdd44290bea87b3cU, 0x3e1494ff3df41959U,
  0xbcfeb647bdbf08b5U, 0xbe4ef419bdeecae2U, 0xbe29cedabd9f31ecU, 0x3e0f4687bdb46bc8U,
  0xbdc4572b3e39ba3eU, 0x3b29cedabd84a99aU, 0x3e3713023e0c9f4cU, 0x3c29cedabbfeb647U,
  0x3e11edc33d544290U, 0x3d09f8113ddedf7eU, 0xbe8750d53c29cedaU, 0x3d49a5a3bcd44290U,
  0x3e599107bd346bc8U, 0x3df967cf3c7eb647U, 0x3da48063bdf967cfU, 0x3c7eb647bde42df4U,
  0x3d288dd5bd17b2daU, 0x3d9a82043dbc37fbU, 0x3d06d7de3e245717U, 0x3d44a579bdf7366cU,
  0xbce0bd1dbda2ef81U, 0x3d01398abdfa0597U, 0x3de38c463d4fe221U, 0x3dae2c2a3da02058U,
  0x3e0c76323cb3ca7dU, 0x3dcfe2213e0408b4U, 0xbdeec8eebc33ca7dU, 0x3d77366c3dcd12f7U,
  0x3dddedf33c06d7deU, 0xbc06d7de3d1d512eU, 0x3da020583d121486U, 0xbe10acf1bd665b71U,
  0x3da020583d3f0726U, 0xbe01398abcd58075U, 0xbdd2b14b3c86d7deU, 0x3df46743bdb3ca7dU,
  0xbe1eb8c2bdf19818U, 0xbc4a43cdbdae2c2aU, 0xbd60bd1d3de38c46U, 0xbb86d7debd719818U,
  0x3e0408b43ddb1ec9U, 0x3d1d512e3cca43cdU, 0x3d60bd1dbc86d7deU, 0xbc33ca7d3e164b45U,
  0xbdf7366c3de0bd1dU, 0x3c4a43cdbde0bd1dU, 0xbdf7366c3d81398aU, 0xbd81398abdfa0597U,
  0xbdf7366cbe202058U, 0xbd121486bde65b71U, 0xbe3262e8bd89a708U, 0xbd4a43cd3d288dd5U,
  0x3e0b0e9dbdb0fb53U, 0x3c33ca7dbe057049U, 0xbcbf0726be0408b4U, 0x3e2f93bebd89a708U,
  0x3d3968d13d665b71U, 0x3c77366cbcf7366cU, 0x3dab5d00bd9a8204U, 0x3dd58075bdebf9c5U,
  0xbdebf9c5bd60bd1dU, 0xbd8c76323d8c7632U, 0x3e0dddc7bcca43cdU, 0x3dc1d64f3d4fe221U,
  0xbdec7ed2bdae8e5fU, 0xbe0b5d05bc9da9e1U, 0x3c1da9e13c77c1d1U, 0x3d1266e3bd9537a3U,
  0x3dd5f8d7bd342fddU, 0xbdf4f110bbe13bd5U, 0x3c9266e33d4ab5d9U, 0xbdabbd9fbd2e8e5fU,
  0x3d0723e6bd39d15cU, 0x3cec7ed23e180863U, 0xbdcab5d93d55f8d7U, 0xbe0cc565bd9da9e1U,
  0xbab42fddbdd32817U, 0x3d7220513cbf72dbU, 0x3db9d15c3dfd634fU, 0x3d3f72dbbdec7ed2U,
  0x3d89f4a53ddb9a56U, 0xbce13bd53cbf72dbU, 0x3dd5f8d7be1266e3U, 0xbe32c77ebd9266e3U,
  0xbd28ecdf3d722051U, 0xbd9808633c613bd5U, 0xbd5b9a56bd7d634fU, 0x3d1da9e1be1c4182U,
  0xbd342fddbdd5f8d7U, 0x3bb42fddbdae8e5fU, 0xbdef4f93be1266e3U, 0x3d9808633cd5f8d7U,
  0x3e088c46bde6dd53U, 0x3b342fddbe1c4182U, 0xbe088c46be32c77eU, 0xbd7d634fbd2e8e5fU,
  0xbd9808633d8f9625U, 0xbd28ecdfbdbf72dbU, 0x3da07aa13c4ab5d9U, 0x3dde6b143e0723e6U,
  0xbc8723e6bd9ad923U, 0xbe001a08bd980863U, 0xbc342fddbdb7009dU, 0x3e05bb86bcb42fddU,
  0xbd613bd53dfd634fU, 0x3da07aa13c1da9e1U, 0xbe09f4a5be1266e3U, 0xbb342fdd3e0f9625U,
  0x3e1537a33db15f1eU, 0xbd9266e33db7009dU, 0x3d89f4a53d180863U, 0xbe1266e33dae8e5fU,
  0x3d2f35babd469239U, 0x3da3877a3e2f35baU, 0xbe1ac4cb3cd24079U, 0x3e0653db3e469239U,
  0xbd807cbb3dbae3f9U, 0x3e63c5d8bc8c2afbU, 0xbd17d93bbe17d93bU, 0x3c0c2afb3e0c2afbU,
  0x3d754b373d754b37U, 0x3dd817983e32214aU, 0x3d699cf83c3ae3f9U, 0xbd17d93bbde99cf8U,
  0x3dd240793ce99cf8U, 0xbe552c08bde99cf8U, 0x3e6c88883e209beaU, 0xbd807cbbbc3ae3f9U,
  0x3d807cbbbe60da48U, 0x3d3ae3f93ca3877aU, 0x3e497dc93e350cdaU, 0xbeb96e313e12021bU,
  0x3cd24079be12021bU, 0x3dc69239bde99cf8U, 0x3da3877abd007cbbU, 0xbe32214abe5deeb8U,
  0xbe23877abd23877aU, 0x3e26730abe209beaU, 0xbd9db05a3e32214aU, 0x3e007cbbbeaad462U,
  0xbdef74183e497dc9U, 0xbd92021b3e12021bU, 0x3ca3877abe60da48U, 0xbe3ae3f9be807cbbU,
  0x3e7836c7bd0c2afbU, 0x3d8653db3d3ae3f9U, 0xbe4f54e93d007cbbU, 0xbda95e9abe209beaU,
  0xbda95e9a3d2f35baU, 0x3ca3877abe26730aU, 0x3d2f35babce99cf8U, 0x3d469239bc699cf8U,
  0x3e37f86abc8c2afbU, 0xbd0c2afbbc699cf8U, 0x3dc692393d8653dbU, 0x3c0c2afbbd8c2afbU,
  0xbdd24079bc0c2afbU, 0xbe0653dbbe2c4a2aU, 0xbcd240793e17d93bU, 0x3dcc6959bd699cf8U,
  0xbe2277103d3cab4bU, 0x3cdf9b9cbe10fee7U, 0x3ca7b4b5be19bafbU, 0xbdd1a1e23d04c465U,
  0x3e20b7d8be06839cU, 0xbd0bc1413e0a020aU, 0xbcb5ae6fbe10fee7U, 0x3e1d396a3dbcab4bU,
  0x3d669879be56df88U, 0xbe25f57e3c8bc141U, 0xbe376da6bdfb8f10U, 0xbdb92cddbcd1a1e2U,
  0xbc43a828badf9b9cU, 0xbca7b4b53e5ddc65U, 0xbe17fbc43d84c465U, 0xbd4aa506bc0bc141U,
  0x3d2eb192bd20b7d8U, 0x3cd1a1e2be0bc141U, 0x3e1b7a323e163c8cU, 0x3d04c4653e0145f6U,
  0xbe163c8cbcb5ae6fU, 0x3d8f3fb03d12be1eU, 0x3d589ebf3dc3a828U, 0x3ca7b4b5be03052dU,
  0x3c8bc141be19bafbU, 0x3e48e5ce3e19bafbU, 0xbe0bc141be19bafbU, 0xbd5f9b9cbd589ebfU,
  0x3e0842d3be2b3323U, 0x3bdf9b9cbd92be1eU, 0xbe1b7a323e0145f6U, 0xbc27b4b53bdf9b9cU,
  0xbd99bafb3e0f3fb0U, 0xbd4aa5063bdf9b9cU, 0x3df113c4be41e8f1U, 0xbded9555bdd89ebfU,
  0xbe0f3fb03dc029baU, 0x3dff0d7e3d8145f6U, 0xbe3230003df113c4U, 0xbd8f3fb0be2973ecU,
  0xbdc029ba3e27b4b5U, 0x3d963c8c3ddf9b9cU, 0x3e20b7d83d7b8f10U, 0x3d20b7d800000000U,
  0x3dab3323be243647U, 0x3cb5ae6f3d4aa506U, 0xbadf9b9cbcdf9b9cU, 0x3dd1a1e2bd20b7d8U,
  0xbe01e0503e3cc0e1U, 0x3d795cc2bc795cc2U, 0x3ddda7c93d48e00eU, 0x3e0a88ddbe325d04U,
  0x3d1f50993dfcd361U, 0xbd263dd73dc5696fU, 0x3d91761bbdf95cc2U, 0xbd94ecbb3dd343ebU,
  0xbc263dd73d039b9fU, 0xbe3b05913e0556eeU, 0xbdbb05913db78ef2U, 0xbd839b9fbdf26f83U,
  0xbd9bd9f9bc5da7c9U, 0x3d91761b3c41f2cfU, 0xbcdda7c9bdf5e623U, 0xbca63dd7be0fbaccU,
  0xbb5da7c93e039b9fU, 0x3d8dff7dbd48e00eU, 0x3d9863593d2d2b15U, 0x3e1d9548bd341853U,
  0x3e039b9f3e13316cU, 0xbe0556ee3e341853U, 0xbd4fcd4cbe54ff3bU, 0xbdf26f833b5da7c9U,
  0xbc263dd73d649507U, 0x3dc1f2cf3e002500U, 0xbceb82453cb41853U, 0xbd91761bbd186359U,
  0x3d9863593dfcd361U, 0x3dda3129bddda7c9U, 0xbdcc56adbda63dd7U, 0xbdc5696f3e16a80aU,
  0xbd9bd9f9bdad2b15U, 0xbd8a88dd3de49507U, 0xbca63dd73d726f83U, 0x3d11761bbdb0a1b3U,
  0x3deb8245bdb41853U, 0x3dbe7c313d3b0591U, 0x3b5da7c93e51889cU, 0x3ddda7c9bc263dd7U,
  0xbe1863593d839b9fU, 0x3e039b9fbe5a3129U, 0x3e5bec793e0c442dU, 0x3d9bd9f9be4e11fcU,
  0xbcdda7c93d5da7c9U, 0xbd8a88dd3d41f2cfU, 0x3df5e623bd48e00eU, 0xbd2d2b153de49507U,
  0xbdb3416abe1af31fU, 0x3e2106b23d17e956U, 0xbd05ae9dbcaa240eU, 0xbdc885ecbb91d5c3U,
  0xbe02a4d4bda4107bU, 0xbb427259be2d2dd7U, 0x3dfc2c4cbdff3615U, 0x3e0d47153caa240eU,
  0x3dc272593c9dfce8U, 0xbd91d5c33db3416aU, 0xbc2a240ebcdac0a4U, 0x3e228b963d1dfce8U,
  0xbac27259bdad2dd7U, 0x3db3416abd8ecbf9U, 0xbd54ad11bd9dfce8U, 0x3d17e9563d1dfce8U,
  0xbe3ad9e13d24107bU, 0x3d0bc230bdcb8fb5U, 0xbd792282be2a240eU, 0xbda71a44bda4107bU,
  0xbd3c5ec63d364b33U, 0xbdc272593db037a1U, 0x3d54ad113db037a1U, 0xbdd4ad113e1f81cdU,
  0x3dad2dd7bdd7b6daU, 0x3caa240e3e40ed74U, 0xbe271a44bdce997eU, 0x3d17e9563d17e956U,
  0x3d364b33bde9f193U, 0xbd3037a1bd2a240eU, 0xbd54ad113d3c5ec6U, 0xbdd4ad113d4885ecU,
  0xbd60d4373e228b96U, 0x3e135aa8bd05ae9dU, 0xbcce997e3db64b33U, 0xbe0d47153c2a240eU,
  0xbe1c78043da106b2U, 0xbd8ecbf93e0d4715U, 0xbe2d2dd7bdecfb5dU, 0xbe1050debd60d437U,
  0x3d3037a13d11d5c3U, 0xbd85ae9d3dff3615U, 0xbd364b333d3c5ec6U, 0xbe259560be011fefU,
  0xbce6e7c93dd1a348U, 0x3d54ad11be259560U, 0xbdd7b6da3c2a240eU, 0x3d792282bcaa240eU,
  0x3daf82af3e1e39b1U, 0x3da236d8bd94eb01U, 0xbd4f6be63daf82afU, 0x3c94eb01bdcf6be6U,
  0x3d9ce54fbe2236d8U, 0xbdaa3126bc9f8e13U, 0xbdb4d4383ddf6082U, 0x3d9ce54f3dc77198U,
  0xbd0f99783d54bd6fU, 0x3cff49b9bdecac58U, 0xbd44c8d43d74a6a6U, 0xbde20946bd8a47efU,
  0x3e1a3c8abd5a0ef8U, 0xbde75acf3dda0ef8U, 0x3cca1a5d3d2f82afU, 0xbddcb7bdbd7f49b9U,
  0x3d0f99783bd4bd6fU, 0x3dccc322bd84f666U, 0xbcd4bd6f3c14eb01U, 0xbc6a0394bdd4bd6fU,
  0xbcbf774a3cea0394U, 0xbd9ce54fbddf6082U, 0x3c7f49b93d6a0394U, 0xbaaa3126bdf4a6a6U,
  0xbe03a203bc9f8e13U, 0xbe08f38dbbff49b9U, 0x3dd214abbb2a3126U, 0x3def551dbdb77cfdU,
  0xbdc4c8d43b2a3126U, 0xbd4f6be63d9ce54fU, 0xbd0a47ef3caa3126U, 0xbd879f2a3d0f9978U,
  0x3d84f666bd824da1U, 0x3cff49b93d0a47efU, 0x3e14eb01bdaf82afU, 0x3dccc3223cea0394U,
  0xbd4a1a5d3d92423dU, 0xbdef551dbcea0394U, 0xbcff49b93c94eb01U, 0x3d879f2abd4a1a5dU,
  0x3c14eb013e28dcc3U, 0xbd7f49b93da4df9dU, 0xbdbcce86bd5f6082U, 0xbd5a0ef8bd1a3c8aU,
  0xbd2a31263c14eb01U, 0xbd1a3c8a3dba25c1U, 0xbd5a0ef83c6a0394U, 0x3ddf60823e0cf0b3U,
  0xbe37c13dbda44c67U, 0x3da44c673e1753d7U, 0x3d9ff98cbdfac574U, 0x3d9ff98cbe0c84b6U,
  0x3d9300fdbb8a5b49U, 0xbdb597d03b0a5b49U, 0x3e1300fd3d2cf21bU, 0xbdb597d0be2f1b88U,
  0x3d7ac5743e2cf21bU, 0xbd9300fdbda89f41U, 0x3df21fbfbe06086fU, 0xbddc817b3c8a5b49U,
  0xbd81b594bdc2905eU, 0x3e60d457bb8a5b49U, 0xbe46e3383c2cf21bU, 0x3d8a5b493d8eae23U,
  0xbdb144f53cacf21bU, 0xbe7ac574bccf88edU, 0x3e81b594be0eae23U, 0x3de0d457be1300fdU,
  0xbda44c67be03df01U, 0x3e4066f13d582ea1U, 0x3e5a580ebe4d5f80U, 0xbe336e623d0a5b49U,
  0xbe01b5943cf21fbfU, 0x3e8946923dff184eU, 0x3e1300fd3de0d457U, 0x3e2675d4be5c817bU,
  0x3e0eae23be789c07U, 0xbe2ac8ae3cf21fbfU, 0xbe289f41be3e3d84U, 0xbd9ba6b2bc721fbfU,
  0xbd8a5b49bd8eae23U, 0xbd1300fd3e7ceee1U, 0x3d582ea1bd8eae23U, 0x3dd3dbc7be2675d4U,
  0xbe697a0bbe490ca5U, 0x3de97a0bbd1ba6b2U, 0xbcf21fbfbdacf21bU, 0x3d60d457bce0d457U,
  0xbe244c67be01b594U, 0xbe01b5943dd82ea1U, 0x3e1300fd3e2ac8aeU, 0xbe560534bd244c67U,
  0xbd46e3383d9ff98cU, 0x3d8a5b493dff184eU, 0xbe4d5f80be2222f9U, 0xbe1753d7bd01b594U,
  0x3e8d1a8ebe5d308cU, 0xbed1bfb03d64d11dU, 0xbe427e8cbec64ed5U, 0xbe370db13e27cc8dU,
  0x3eaf6d1fbe8d1a8eU, 0x3daf6d1f3d188b68U, 0xbde4d11dbe10ead6U, 0xbe6100d4be202bfbU,
  0x3d90ead63dc64ed5U, 0xbd7412413e6c71afU, 0xbe558ff93ecdef67U, 0x3dbeae433e0d1a8eU,
  0xbdcdef673e7bb2d3U, 0x3dd58ff93e9c5bb2U, 0xbe596042bed7781eU, 0xbe9e43d6bdaf6d1fU,
  0x3e01a9b3bdbeae43U, 0x3ec466b03dec71afU, 0xbe8579fbbe81a9b3U, 0x3cd58ff9be876220U,
  0xbeb8f5d53e876220U, 0x3de4d11dbe1c5bb2U, 0x3dc64ed5be8391d7U, 0x3dbeae43be6c71afU,
  0xbe894a453e68a166U, 0xbebcc61e3e202bfbU, 0xbe370db13ec27e8cU, 0xbef22a1d3e5d308cU,
  0xbd988b68be77e28aU, 0xbec27e8cbd188b68U, 0x3ebcc61ebdcdef67U, 0x3dc64ed5bdec71afU,
  0xbe64d11d3e4a1f1eU, 0xbeb5258dbd741241U, 0x3d370db1bddd308cU, 0xbd81a9b3be370db1U,
  0x3ea02bfb3bf41241U, 0xbc988b683d988b68U, 0xbda02bfbbe8f02b2U, 0xbda7cc8d3e427e8cU,
  0xbec096673d370db1U, 0xbda02bfbbe2f6d1fU, 0x3e51bfb03d894a45U, 0x3eb33d683dfbb2d3U,
  0x3ea2141f3da7cc8dU, 0xbea3fc44be14bb1fU, 0x3e0579fbbea02bfbU, 0x3e9a738dbde4d11dU,
  0x3d1e6712bda1b3e1U, 0x3e17cd70bd9480a0U, 0x3d80b3bebb533417U, 0xbe200d793d9480a0U,
  0x3dcfe7463dc600d6U, 0x3d6d9a993db580c3U, 0xbd0a9a2fbd606758U, 0x3da84d82U,
  0x3df0e769bb533417U, 0x3cd33417be0a9a2fU, 0xbd0a9a2f3d8de6ffU, 0xbdab9a53be2d40bbU,
  0xbe0f8d67bc533417U, 0x3da500b23cfacddbU, 0x3c5334173d4600d6U, 0x3dab9a533d8de6ffU,
  0xbc9133cf3e04008eU, 0xbe025a26bd606758U, 0x3dfacddbbe025a26U, 0xbdc94da5bda1b3e1U,
  0xbda500b23e33da5bU, 0xbd6700fabd9480a0U, 0x3e025a26be33da5bU, 0x3ced9a99bdbc1a64U,
  0xbd9480a03e3f6735U, 0x3d74343b3c04008eU, 0xbc6d9a993cd33417U, 0x3d0a9a2fbded9a99U,
  0xbd2500b23de700faU, 0x3ddd1a883c6d9a99U, 0x3dab9a53bddd1a88U, 0xbe518dafbc9e6712U,
  0x3da84d82bdf0e769U, 0xbdaee723be162708U, 0xbcab9a53bdfacddbU, 0x3d3f6735bd6700faU,
  0x3e1133cfbe04008eU, 0x3e33da5b3e0de6ffU, 0xbe200d79bd7acddbU, 0xbd4600d63d8de6ffU,
  0x3e47a73d3d8de6ffU, 0x3dbf6735bdbc1a64U, 0xbd3f6735bd9e6712U, 0xbe1973d93d04008eU,
  0xbe1133cfbd9480a0U, 0xbd97cd70bd97cd70U, 0x3dcfe746be0de6ffU, 0x3dc600d63cb8cd94U,
  0xbdb2f5a13da98a62U, 0x3d80b9aa3de20dd9U, 0x3de85557bc620dd9U, 0xbd6e9cd73d2342e4U,
  0xbc16b3e6bdf1c096U, 0x3d8701283d8d48a8U, 0xbd1cfb64bdd25b1bU, 0x3d03dd69bd80b9aaU,
  0xbd96b3e63c48efddU, 0x3e2e4001bd870128U, 0x3de53198be03dd69U, 0xbd42a85ebcfb2bd4U,
  0xbd3c60dfbdb61960U, 0x3d685557bcd57edbU, 0xbd6e9cd7bd5bc659U, 0x3d298a623d8d48a8U,
  0xbcd57edb3d557edbU, 0x3da342e4bb48efddU, 0xbd42a85ebbfb2bd4U, 0x3cafd1e13dcf375bU,
  0xbdd8a29bbe024b89U, 0x3e152206bdb2f5a1U, 0xbd8701283e1e8d45U, 0xbe106c66be2fd1e1U,
  0x3e106c66bde20dd9U, 0x3ac8efdd3d557edbU, 0x3dd57edb3d2fd1e1U, 0xbda666a33dd8a29bU,
  0xbe475dfd3e348780U, 0xbe1522063da342e4U, 0xbdcc139dbd0a24e8U, 0xbda98a62bd6e9cd7U,
  0x3d6e9cd73da98a62U, 0xbdf4e454bd8a24e8U, 0x3dafd1e13e139026U, 0x3d74e454be00b9aaU,
  0x3d8d48a8bc16b3e6U, 0xbdfe4f933d5bc659U, 0x3de20dd9bd42a85eU, 0x3e16b3e6bdd25b1bU,
  0xbd80b9aabd361960U, 0xbe0701283cfb2bd4U, 0xbe3619603da342e4U, 0x3d1cfb643e21b104U,
  0xbd99d7a53d42a85eU, 0x3d3619603cd57edbU, 0x3dd8a29bbdb2f5a1U, 0x3dfe4f93bc620dd9U,
  0xbe0f8976be954747U, 0x3d37ba303da0c2eaU, 0x3e3d78023df12460U, 0x3e5a2d1abd65a8bdU,
  0xbd9547473e4335d4U, 0x3e6b668e3e982630U, 0x3bb7ba303e20c2eaU, 0xbedd0c023da0c2eaU,
  0x3ecbd28ebe154747U, 0x3e982630bdc335d4U, 0xbe546f48be2680bcU, 0x3ee2c9d4bec335d4U,
  0xbe1b0519beeb668eU, 0x3e86ecbb3ea0c2eaU, 0xbeba99193df12460U, 0x3e6b668e3ef9c11aU,
  0xbe09cba43e31fc5fU, 0x3d89cba4be2680bcU, 0x3ea680bcbf16b6bcU, 0xbf364abcbe546f48U,
  0x3dc335d43d09cba4U, 0xbe37ba303e48f3a5U, 0x3f040dd3be154747U, 0x3db7ba303ce5a8bdU,
  0x3ee2c9d43e812eeaU, 0x3f182630be31fc5fU, 0x3dda2d1a3ec056ebU, 0x3ea0c2eabbb7ba30U,
  0x3eb7ba30beac3e8dU, 0x3e5feaeb3d09cba4U, 0xbec056ebbedfeaebU, 0x3ee887a53edfeaebU,
  0xbe546f48bde5a8bdU, 0xbeb7ba303e8caa8dU, 0xbda0c2ea3e48f3a5U, 0xbdb7ba30bd89cba4U,
  0xbe4eb177bec335d4U, 0x3e48f3a5bea95fa4U, 0x3e6b668ebdda2d1aU, 0xbe3d7802be954747U,
  0x3e4335d4bec614bcU, 0xbec335d4bce5a8bdU, 0x3d7ca0023e48f3a5U, 0xbeda2d1a3e09cba4U,
  0xbe8f8976bee2c9d4U, 0x3da0c2eabeb7ba30U, 0x3e9de4013eda2d1aU, 0xbd65a8bd3db7ba30U,
  0x3c9f10cb3e0b2eb1U, 0xbd788a3d3d50c60bU, 0xbd788a3d3d151fbeU, 0x3dd0c60bbd9f10cbU,
  0xbe268595bd951fbeU, 0x3de9a0ab3e03b9e8U, 0xbda409513e1f10cbU, 0x3d86362bbe495141U,
  0x3e41dc783e4458bbU, 0x3e4bcd843db2f2e4U, 0xbe12a37bbd951fbeU, 0x3db7eb6bbdd0c60bU,
  0x3d9f10cb3e218d0eU, 0xbd5ab718be3ce3f1U, 0x3e87744d3e0daaf5U, 0xbe2b7e1b3d813da5U,
  0xbe41dc78bdbce3f1U, 0xbc1f10cbbdd5be91U, 0xbdc6d4febda901d8U, 0xbe9dd2aabbee9930U,
  0xbe08b26e3b9f10cbU, 0x3d3ce3f1bd50c60bU, 0x3d013da5be218d0eU, 0xbda901d8be12a37bU,
  0x3e41dc783df88a3dU, 0x3e55be913d1f10cbU, 0x3c1f10cb3dc1dc78U, 0xbc8b2eb1be5faf9eU,
  0xbd813da53da40951U, 0x3c46d4febde4a824U, 0x3b1f10cbbe5d335bU, 0xbd46d4fe3cc6d4feU,
  0x3e2409513df391b6U, 0xbdadfa5ebe151fbeU, 0x3ddab718bde4a824U, 0x3e0daaf53d50c60bU,
  0x3dee9930bc46d4feU, 0xbc8b2eb1be102738U, 0x3e2dfa5e3cdab718U, 0xbe1a1845bc8b2eb1U,
  0x3de4a8243e03b9e8U, 0x3e03b9e8be03b9e8U, 0x3de9a0ab3d902738U, 0x3e0daaf5bc1f10cbU,
  0x3da40951be268595U, 0x3e788a3d3e1a1845U, 0x3ddab7183db7eb6bU, 0x3ddfaf9e3d151fbeU,
  0x3df180cebd26c08eU, 0xbe11307cbdbae0a0U, 0x3c6600c5bdb8009dU, 0x3ddd60bdbd6600c5U,
  0xbe0fc07b3dfa20d5U, 0x3d4380a73e36909cU, 0xbdc940acbe072073U, 0xbdf460d13df740d4U,
  0x3bb8009dbcb8009dU, 0x3dbdc0a2bd81606fU, 0xbd0fc07bbdb8009dU, 0xbd9e2087bdd7a0b9U,
  0x3bb8009d3d54c0b6U, 0x3c38009dbd0a0076U, 0x3c4f00b1bce600c5U, 0x3c4f00b13cf180ceU,
  0xbdf180ce3e12a07dU, 0xbdbae0a03dfd00d8U, 0x3c8a0076bd5a80baU, 0xbd3dc0a23dbdc0a2U,
  0x3bb8009dbdcc20aeU, 0xbd54c0b63d81606fU, 0x3d2c8093bcf180ceU, 0xbc0a00763d324098U,
  0x3cac8093bdffe0daU, 0xbe072073be12a07dU, 0x3c4f00b13dc660a9U, 0x3dfd00d83d9e2087U,
  0x3dcf00b1bdda80baU, 0xbd3dc0a23e0fc07bU, 0xbe0ce078bdb5209aU, 0x3e33b09abcfd00d8U,
  0xbd7d00d8bda9a091U, 0x3db24098U, 0xbdcf00b13d1b4085U, 0xbd0fc07b3d6bc0c9U,
  0xbd26c08e3d7d00d8U, 0x3d81606f3d044071U, 0x3b38009d3d21008aU, 0x3d92a07d3db8009dU,
  0xbc0a00763dd7a0b9U, 0x3e0720733d872073U, 0xbd7d00d8bab8009dU, 0x3e15807fbdbae0a0U,
  0x3d6600c53db24098U, 0xbdbdc0a23c7d00d8U, 0xbe0440713e0ce078U, 0xbe0440713d6040c0U,
  0x3d84f0be3ba39e74U, 0xbcc24c2abdd6bff8U, 0xbd6616d33d756dadU, 0xbcc24c2abdcf148bU,
  0xbdfa8aa2bdbaa0bcU, 0x3d944799bd877f38U, 0xbdf7fc27bdd4317eU, 0x3c4c8610bd99648dU,
  0xbda62ced3d944799U, 0x3e0b54ee3bf56dadU, 0x3e11b9203cc24c2aU, 0x3dbfbdb03cc24c2aU,
  0x3c84f0bebd19648dU, 0xbe13005c3d239e74U, 0xbc99648d3cd6bff8U, 0xbba39e743dab49e1U,
  0x3dc9f79700000000U, 0x3d6616d3bda62cedU, 0xbcd6bff8bd19648dU, 0x3da62cedbe08c675U,
  0x3dffa7953d8a0db2U, 0x3d6616d3bd424c2aU, 0x3e158ed6bc84f0beU, 0x3ca39e74bdcc8610U,
  0xbd4c8610bd8c9c2cU, 0xbe1fc8bdbdc7691dU, 0x3dd94e733de0f9dfU, 0xbddbdcecbddbdcecU,
  0x3d0f2aa53ba39e74U, 0x3d9bf3073e225737U, 0xbdffa7953de3885aU, 0xbda8bb68bbcc8610U,
  0xbdadd85bU, 0x3d756dad3c84f0beU, 0xbde616d3bdcc8610U, 0x3c60f9df3dbfbdb0U,
  0xbd0a0db23c99648dU, 0xbd144799bc4c8610U, 0x3dd94e73bd8f2aa5U, 0x3d9bf3073d6b33c6U,
  0xbd19648d3d99648dU, 0xbe158ed63d4c8610U, 0xbd51a305bdfa8aa2U, 0x3dde6b65be03a981U,
  0xbd9bf3073d47691dU, 0xbdf56dadbcd6bff8U, 0x3d756dadbd32f54fU, 0xbdd94e733c381242U,
  0xbd9e1567bdcba214U, 0xbd88a607bc2b7b04U, 0x3d85f81bbdfbdcadU, 0xbdb632b4bd46463cU,
  0xbda8cd183dc39850U, 0xbdcba214bd160ba3U, 0x3d1b677b3ca0c354U, 0xbd666d4dbd9e1567U,
  0x3d2b7b043d4ba214U, 0xbdde6389bd960ba3U, 0xbdd3abd8bda37140U, 0xbdae28f03d98b98fU,
  0xbd3632b4bde3bf61U, 0x3d834a2f3d20c354U, 0x3dc8f4283de91b39U, 0xbdd0fdecbc6bc925U,
  0xbdab7b043dbe3c78U, 0xbda61f2c3cc0ea64U, 0x3ccba2143dc0ea64U, 0x3ccba2143d7bdcadU,
  0xbd5659c4bdc0ea64U, 0x3e08a6073de91b39U, 0xbd834a2f3df680d5U, 0xbc40ea64bd2b7b04U,
  0x3e18b98f3bab7b04U, 0xbd6bc925bd7680d5U, 0xbb809c433e01f339U, 0xbd935db73d46463cU,
  0xbd6bc9253d30d6dcU, 0xbc009c43bdc0ea64U, 0xbcc0ea643e074f11U, 0xbd10afcb3d2b7b04U,
  0xbd46463c3d7680d5U, 0x3d9e15673d6bc925U, 0x3dd659c43cab7b04U, 0x3d8e01df3d160ba3U,
  0x3d8e01dfbc40ea64U, 0x3dc6463c3d935db7U, 0xbd809c433dd3abd8U, 0x3c960ba33cf680d5U,
  0xbd8b53f33c809c43U, 0xbccba2143d834a2fU, 0x3cf680d5bd809c43U, 0x3e2a240e3d7bdcadU,
  0xbd20c354bdde6389U, 0x3d160ba3bb2b7b04U, 0xbd30d6dcbd611175U, 0xbc160ba33cab7b04U,
  0xbe29ea05bee4e980U, 0xbeac4629bd8d9859U, 0x3da9ea05bc9708e8U, 0x3d4fac3fbea78de2U,
  0x3ec3df8dbe6745a3U, 0xbe6745a300000000U, 0xbe08e0133e8427cbU, 0xbe7edf08bee28d5cU,
  0x3e9bc1303eac4629U, 0x3ec3df8dbeb0fe70U, 0xbe4af3f8bebf2746U, 0x3cbccb223eb812dcU,
  0x3e9bc130be8d9859U, 0x3e4af3f83edb78f2U, 0x3e591ccdbf0683efU, 0xbd0427cbbe8d9859U,
  0xbe8427cb00000000U, 0xbd0427cbbe88e013U, 0xbf15dad63ea07977U, 0x3ecaf3f8be3ccb22U,
  0x3e1250a13e8ff47dU, 0xbee4e9803ce28d5cU, 0xbf0555dd3eba6efeU, 0x3ecaf3f83e88e013U,
  0x3ec63bb1be9e1d53U, 0xbf0683ef3e29ea05U, 0x3e3ccb223d756e7aU, 0xbe99650c3ebccb22U,
  0x3e81cba8bdebfdebU, 0xbe0427cb3eb0fe70U, 0xbe3ccb223e6745a3U, 0xbd8427cbbec18369U,
  0x3d3ccb22be94acc5U, 0xbe628d5cbe8427cbU, 0x3d9708e8be08e013U, 0x3da079773ec897d4U,
  0xbe9708e83eb812dcU, 0xbe81cba83ea531beU, 0x3c628d5c3e94acc5U, 0x3e29ea053ebf2746U,
  0xbe3ccb22be2531beU, 0x3dbccb22bea2d59aU, 0x3e94acc5bec3df8dU, 0xbe81cba8be0d9859U,
  0xbdcfac3f3cbccb22U, 0x3eee5a0e3e1708e8U, 0x3d628d5cbdb35a93U, 0x3ea2d59abee28d5cU,
  0xbd8b556c3c972441U, 0xbdc65f953d70e1c8U, 0x3d4fd1d93d38342fU, 0xbc043fb9bd465f95U,
  0xbd926b1f3daec1ebU, 0xbd1bdd63bcec28a5U, 0xbd2ec1ebbda2f315U, 0xbd548afb3db37b0cU,
  0x3daec1ebbd4b18b7U, 0x3d70e1c83d972441U, 0x3b1724413b972441U, 0x3db5d79ebca09685U,
  0xbd1724413c759ae9U, 0x3d9e39f4bd926b1fU, 0x3d548afb3d759ae9U, 0xbd759ae93d126b1fU,
  0xbccfd1d9bc62b661U, 0x3d337b0cbde2b661U, 0xbce2b6613db8342fU, 0x3cb37b0cbde2b661U,
  0xbe15f5f8bd62b661U, 0xbdb37b0cbd81e328U, 0x3ca096853db5d79eU, 0xbccfd1d9bb172441U,
  0x3caa08c83d172441U, 0x3d2ec1ebbd7f0d2dU, 0x3d7f0d2d3de76f84U, 0xbdbf49e23dcfd1d9U,
  0x3cc65f953d4fd1d9U, 0xbdc8bc263d8db1fdU, 0xbd843fb9bcf59ae9U, 0x3d2a08c83cb37b0cU,
  0x3be2b6613da2f315U, 0x3daec1ebbc8db1fdU, 0x3d6c28a53c4fd1d9U, 0x3cbced503d8db1fdU,
  0xbde512f23db8342fU, 0xbd81e3283dcb18b7U, 0x3c172441bc62b661U, 0x3d94c7af3cff0d2dU,
  0x3dac655abcff0d2dU, 0xbdfa540bbda54fa7U, 0x3cff0d2dbdb37b0cU, 0x3db5d79ebd8db1fdU,
  0xbc043fb93d81e328U, 0x3b62b6613d254fa7U, 0xbd62b6613caa08c8U, 0xbc2a08c83c4fd1d9U,
  0xbe09b427bcfe38e5U, 0x3dbeaaabbd8f0001U, 0xbd73a131be01c260U, 0x3e1c3da2be3c04bfU,
  0xbba97b443e469c73U, 0xbd09b4273de3bda3U, 0xbd1ee390be2ec71eU, 0x3e0c5a14be1ee390U,
  0x3d73a131bd494260U, 0xbe11a5eebbfe38e5U, 0x3e11a5ee3e316d0aU, 0xbd5e71c83cd3da14U,
  0xbd9ee390bd7e38e5U, 0xbd09b4273d09b427U, 0xbe316d0abc297b44U, 0xbde9097dbd53da14U,
  0xbdf8ed0b3dfe38e5U, 0xbe9052f8bdb412f7U, 0x3ea8284dbe415099U, 0x3d494260bdf8ed0bU,
  0xbcbeaaabbd297b44U, 0x3d4942603e297b44U, 0x3e5e71c83db412f7U, 0x3e070e3a3dc94260U,
  0x3e070e3abc53da14U, 0x3c297b44be0c5a14U, 0xbd73a1313db95ed2U, 0xbdc3f686U,
  0x3cd3da143e415099U, 0xbd69097dbe1997b5U, 0x3de3bda33e11a5eeU, 0xbe568002bda42f69U,
  0x3db95ed23d3eaaabU, 0x3e4be84e3e144bdbU, 0x3e144bdb3df8ed0bU, 0x3b297b443e21897dU,
  0xbe36b8e5be494260U, 0xbbfe38e53d5e71c8U, 0xbe4942603e01c260U, 0xbda97b44bd5e71c8U,
  0xbc297b44bdf3a131U, 0x3d297b443e21897dU, 0x3d1ee390be316d0aU, 0xbd944bdb3d84684dU,
  0xbe04684dbe1ee390U, 0x3db412f73c53da14U, 0x3d4942603dc3f686U, 0x3dd925efbd89b427U,
  0xbe354157bdf8941fU, 0x3e162ed33e6ba1beU, 0x3dc9f85a3d910112U, 0xbe1397f2bd06a591U,
  0xbe51bcfabd9b5c93U, 0xbba5b8153dc4ca98U, 0x3e6e389ebe4233b8U, 0xbe0e6a323bf8941fU,
  0x3dc4ca983dee389eU, 0x3dc4ca983d63dd1cU, 0xbe32aa77be37d837U, 0x3cf8941f3dc4ca98U,
  0x3d25b815be162ed3U, 0xbdaae5d5be06a591U, 0x3e2ae5d53e5c187cU, 0x3e301396be1b5c93U,
  0xbd110112be7dc1dfU, 0x3e2d7cb6bc78941fU, 0xbea46ca53d8bd351U, 0x3ce3dd1c3dcf261aU,
  0xbe3d05f8be208a54U, 0x3bf8941fbdee389eU, 0x3da5b815be354157U, 0xbe4761783d110112U,
  0x3d06a5913d1b5c93U, 0xbdee389ebe232135U, 0x3e2d7cb63d59819cU, 0xbbf8941fbd6e389eU,
  0xbe9df374bdf3665fU, 0xbe25b8153e59819cU, 0x3ddeaf5cbd910112U, 0x3e4f261a3c910112U,
  0x3dfdc1dfbdb54157U, 0xbd910112bc78941fU, 0x3e51bcfa3e1397f2U, 0x3e476178be75fd3fU,
  0xbd3a6f183d8177d0U, 0x3daae5d53ba5b815U, 0x3b25b8153b25b815U, 0x3e70cf7ebce3dd1cU,
  0xbdf3665f3e040eb1U, 0xbdc4ca98bdc4ca98U, 0xbc4f261a3ddeaf5cU, 0xbcba6f183cf8941fU,
  0x3e802c60bb25b815U, 0x3de90add3ddeaf5cU, 0x3d110112be1df374U, 0x3c25b815be284ef5U,
  0xbd6b811f3dbea57bU, 0xbe149790bd17654bU, 0x3ab36e92bd5aaec2U, 0x3e1330b43cd5134dU,
  0xbd91c9d6be1330b4U, 0x3e1a33053d83c533U, 0xbb336e923e2dd31dU, 0x3dd24593bd949790U,
  0xbd9d00c03e03c533U, 0x3e299e863da29c34U, 0x3ddd7c7c3d604a37U, 0xbd80f7783d390a06U,
  0xbd3ea57b3d76b808U, 0x3dadd31dbe00f778U, 0xbc1d00c03d949790U, 0x3da569ee3dcf77d8U,
  0xbe07f9cabe213557U, 0x3e240311bca837a8U, 0x3d390a06bde317f0U, 0xbddaaec23d5aaec2U,
  0xbd0c2e623d1d00c0U, 0x3d91c9d63d2837a8U, 0xbd55134dbcbea57bU, 0xbd711c943deb811fU,
  0xbde317f03d2dd31dU, 0xbc0692eebdf11c94U, 0xbc76b8083dadd31dU, 0x3e0ac784bda569eeU,
  0xbc49dc64bb336e92U, 0x3e025e563e2dd31dU, 0xbd1d00c0be3207b4U, 0xbe025e56bdadd31dU,
  0xbd9d00c0bd91c9d6U, 0xbe07f9cabe11c9d6U, 0xbd76b8083db63c4cU, 0xbc0692eebe1fce7aU,
  0xbdff21373c0692eeU, 0xbdcf77d8bc0692eeU, 0xbd8c2e62bdd24593U, 0x3dbea57bbc91c9d6U,
  0xbd2dd31dbd604a37U, 0xbdf985c33e0ac784U, 0xbcf6b8083dbea57bU, 0xbd6b811f3d711c94U,
  0xbde317f0bde04a37U, 0xbd55134d3d7c537cU, 0xbd65e5abbde04a37U, 0x3d229c34bd00f778U,
  0x3e0afde4bd6a1766U, 0x3d8d6e233d124ea0U, 0x3e36e248bdfd9959U, 0x3e088da6be0fde61U,
  0x3dbe33023e236055U, 0x3df8b8dc3e51b4f5U, 0x3d088da63c6a1766U, 0xbd8d6e23be061d68U,
  0xbd3952863da0f016U, 0x3e236055bde536e8U, 0xbe14beddbd2f918cU, 0xbe124ea0bcd69572U,
  0xbdaab10fbe1c0f99U, 0xbdfd9959be4cd479U, 0x3e124ea0bdd69572U, 0x3df8b8dc3d1c0f99U,
  0xbe1e7fd8be2840d2U, 0x3d1c0f99bd924ea0U, 0x3d924ea03d972f1cU, 0xbe861d68bd395286U,
  0x3dea17663b9c0f99U, 0x3d7d99593e2840d2U, 0x3e03ad293e347209U, 0x3e47f3fc3daab10fU,
  0x3e03ad293dbe3302U, 0xbd9c0f99be25d093U, 0xbe2360553e0fde61U, 0x3d6a1766be9ad77aU,
  0x3e1e7fd8bcc3137fU, 0xbdbe3302bda0f016U, 0xbddb75efbe4583beU, 0x3daab10fbe47f3fcU,
  0xbe013cebbd9c0f99U, 0xbd3952863dd1b4f5U, 0xbd088da6bda5d093U, 0x3da0f0163d124ea0U,
  0x3dd1b4f53e03ad29U, 0xbd088da63bea1766U, 0x3d395286bda0f016U, 0xbe3952863e2840d2U,
  0xbcc3137fbd972f1cU, 0x3db47209bd4cd479U, 0xbddb75ef3d888da6U, 0xbdaf918c3e20f016U,
  0x3dc7f3fcbd1c0f99U, 0x3e061d683e40a341U, 0xbe395286be2d214eU, 0xbdfd9959bd569572U,
  0xbb85533f3d58a746U, 0xbe227d753d95fda7U, 0x3e353d29bd3fa7aaU, 0xbbc7fcdfbe206828U,
  0xbe5052133d6951afU, 0x3d9a2841be2ad2a9U, 0xbe2efd43be4a122bU, 0x3d60fc7bbdb327ddU,
  0xbe2ce7f6be73bc30U, 0x3e60fc7b3e58a746U, 0xbe8128a53e526760U, 0xbe0128a5be26a80fU,
  0xbe2ad2a93d58a746U, 0xbcf9fc17be801dffU, 0x3d58a746be4e3cc5U, 0x3c85533fbe844899U,
  0x3d79fc173e4a122bU, 0xbe3967c4bd85533fU, 0x3ded7c483e652715U, 0x3e6527153ddcd1e0U,
  0xbe097dd9bd6951afU, 0x3e3967c4bd26a80fU, 0xbe3d925ebda27d75U, 0xbd8da873bdd8a746U,
  0x3d9e52db3dd47cacU, 0x3e2efd433d9e52dbU, 0x3e033df2bd505213U, 0xbd85533fbc95fda7U,
  0x3d79fc17bcf9fc17U, 0xbd85533f3e3967c4U, 0x3e2ce7f63e0b9326U, 0x3d26a80fbdd47cacU,
  0xbd505213bcc7fcdfU, 0xbe3967c43c85533fU, 0x3d79fc173e15fda7U, 0xbbc7fcdfbd9a2841U,
  0x3d8da8733e673c61U, 0x3d8da8733e0da873U, 0xbd8da8733d8da873U, 0xbe0b93263e2492c2U,
  0xbe26a80fbce951afU, 0x3c47fcdfbcf9fc17U, 0xbe13e85abd91d30dU, 0xbd375277be2ad2a9U,
  0xbda6a80fbd8128a5U, 0xbd9e52db3e15fda7U, 0xbe5691fabe673c61U, 0xbd8da873be526760U,
  0xbda036b3bdebf377U, 0x3d0bd2a53d51bbf9U, 0xbd349ac1bd578f6aU, 0xbd1d4cfabda8f3ddU,
  0xbce909bebdb1b108U, 0xbc0bd2a5bd23206cU, 0x3d28f3ddbd977989U, 0x3ca3206c3d977989U,
  0x3de04c94bcc61516U, 0x3bba6e32bc977989U, 0xbda8f3dd3c6909beU, 0x3d2ec74f3d23206cU,
  0xbca3206cbd802bc3U, 0x3b8bd2a5bc6909beU, 0x3e002bc33d1d4cfaU, 0xbd2ec74f3d11a617U,
  0x3d0bd2a5bcba6e32U, 0xbd63364dbbe909beU, 0x3e21ab8f3d5d62dbU, 0x3d5d62db3d85ff34U,
  0x3d83157bbcd1bbf9U, 0xbc51bbf93e38f956U, 0x3cdd62dbbd8bd2a5U, 0xbbba6e32U,
  0xbd8ebc5ebda036b3U, 0x3e0d4782bde909beU, 0x3d63364dbd7a8414U, 0x3c0bd2a53ce909beU,
  0x3e05ff343d177989U, 0xbdf1c6eabdd1bbf9U, 0x3caec74f3dc8feceU, 0x3dd4a5b13d91a617U,
  0xbdcbe887bd1d4cfaU, 0x3e1ec1d7bd6edd30U, 0xbd05ff343d83157bU, 0xbd11a617bde62006U,
  0xbd977989bd9a6342U, 0x3d8ebc5e3ce909beU, 0x3d4041a43dc041a4U, 0x3ce909be3dfd6dcdU,
  0x3cdd62dbbd51bbf9U, 0xbdc041a4bdba6e32U, 0x3e0bd2a5bdb1b108U, 0x3c977989bd002bc3U,
  0x3e048a583c8bd2a5U, 0xbd7a8414bd9a6342U, 0xbaba6e32bdda7923U, 0xbd23206c3c6909beU,
  0x3e234b893d081447U, 0xbe3e82c93de755acU, 0x3e40c7653d479535U, 0x3db0e729be52ec3bU,
  0xbdcc1e6bbbd9ba0bU, 0xbd9a391d3c9126b2U, 0xbdd530d5bd74f14cU, 0xbe2a19593e49d9cfU,
  0x3e05cfac3e4e6305U, 0xbd9a391dbe4c1e6bU, 0xbe37b4f9bd9ec253U, 0x3db5705f3e27d4bdU,
  0x3dc79535bcc79535U, 0x3d8814473e014676U, 0xbd35705fbdf97a82U, 0xbd9ec2533da7d4bdU,
  0x3e332bc3bb9126b2U, 0x3d6bdee1be2106edU, 0xbe4e6305bd3e82c9U, 0x3e234b89bd9a391dU,
  0xbcc79535be2c5df3U, 0x3dc79535be651111U, 0xbe9004653e0c9d7cU, 0xbe6bdee1be2106edU,
  0xbd35705fbc9126b2U, 0x3d9a391dU, 0xbe0c9d7c3dc79535U, 0xbd95afe83e2ea28fU,
  0xbe49d9cfbd50a7a0U, 0x3db0e7293cfe03b8U, 0x3da34b89be430bffU, 0x3d234b89bd9a391dU,
  0x3d838b11bdf06817U, 0xbe5bfea6bdbe82c9U, 0x3d838b113e30e729U, 0xbd95afe83d9126b2U,
  0x3dc30bffbe479535U, 0x3da7d4bdbe2106edU, 0xbe0146763dcc1e6bU, 0x3cb5705f3c59ba0bU,
  0xbdb0e729bb9126b2U, 0x3e37b4f9bcc79535U, 0x3ca34b89be2ea28fU, 0xbe30e729bd62cc76U,
  0x3cd9ba0bbd081447U, 0xbdebdee13dd0a7a0U, 0x3d9ec2533dc79535U, 0x3d6bdee13e59ba0bU,
  0x3e9c70e53f0853c1U, 0xbde86d37bf019f5fU, 0xbe686d37befec67cU, 0xbdc4ab2fbf2c15c8U,
  0x3c0f08223e819f5fU, 0x3e97f8a43f2c15c8U, 0x3c0f08223f4d9bb1U, 0x3e819f5fbe8f0822U,
  0xbd568c323d568c32U, 0xbe686d37bdb2ca2bU, 0x3da0e9263dc4ab2fU, 0xbf0ccc013efa4e3bU,
  0xbe44ab2f3d32ca2bU, 0x3f019f5f3e0f0822U, 0xbe568c323cd68c32U, 0xbea0e926bd8f0822U,
  0xbea0e9263c8f0822U, 0x3eece579bdc4ab2fU, 0x3ea56167befa4e3bU, 0xbf8dea123d0f0822U,
  0x3f426f0f3e9c70e5U, 0xbe32ca2b3f397e8cU, 0x3f35064bbee86d37U, 0x3edf7cb53f138063U,
  0x3e3bbaacbeb7426bU, 0x3f6f21993f114442U, 0x3f2c15c83dc4ab2fU, 0x3cd68c32bedf7cb5U,
  0x3f138063bf15bc83U, 0x3f37426bbf32ca2bU, 0xbc0f0822bf232547U, 0x3ea56167be715db9U,
